<pad>	0
<s>	0
</s>	0
<unk>	0
::	-0
er	-1
in	-2
et	-3
on	-4
()	-5
at	-6
▁{	-7
▁}	-8
re	-9
se	-10
st	-11
▁=	-12
▁f	-13
or	-14
ut	-15
▁"	-16
en	-17
▁l	-18
lf	-19
al	-20
self	-21
it	-22
es	-23
);	-24
▁let	-25
▁a	-26
▁t	-27
ion	-28
▁p	-29
ec	-30
▁c	-31
ar	-32
un	-33
om	-34
an	-35
▁-	-36
▁m	-37
de	-38
▁fn	-39
▁S	-40
▁&	-41
le	-42
▁self	-43
▁.	-44
(&	-45
▁i	-46
ul	-47
ap	-48
ne	-49
▁->	-50
ing	-51
ate	-52
▁s	-53
to	-54
ent	-55
am	-56
ch	-57
ce	-58
!(	-59
ro	-60
▁as	-61
co	-62
mut	-63
),	-64
ue	-65
▁b	-66
ad	-67
ult	-68
ub	-69
as	-70
ur	-71
id	-72
tr	-73
ex	-74
▁=>	-75
ed	-76
ser	-77
▁_	-78
lo	-79
();	-80
tion	-81
str	-82
rr	-83
is	-84
iz	-85
res	-86
new	-87
fi	-88
el	-89
Err	-90
(),	-91
wr	-92
).	-93
▁v	-94
ac	-95
▁pub	-96
▁in	-97
em	-98
ag	-99
ic	-100
▁",	-101
il	-102
ize	-103
▁#	-104
▁(	-105
us	-106
▁o	-107
▁0	-108
one	-109
▁r	-110
▁O	-111
ect	-112
▁R	-113
▁d	-114
().	-115
sert	-116
ter	-117
ol	-118
est	-119
("	-120
Error	-121
▁if	-122
yp	-123
he	-124
▁)	-125
In	-126
put	-127
rom	-128
get	-129
im	-130
▁#[	-131
ame	-132
▁mut	-133
ig	-134
con	-135
ind	-136
ation	-137
ome	-138
▁1	-139
▁n	-140
alue	-141
▁C	-142
▁re	-143
ot	-144
eq	-145
▁:	-146
ode	-147
um	-148
wrap	-149
▁assert	-150
▁*	-151
err	-152
pl	-153
▁u	-154
ab	-155
ow	-156
esult	-157
▁w	-158
li	-159
unwrap	-160
atch	-161
and	-162
ption	-163
▁st	-164
ke	-165
32	-166
elf	-167
▁Some	-168
ype	-169
der	-170
NE	-171
▁T	-172
ata	-173
ay	-174
th	-175
ck	-176
cr	-177
?;	-178
from	-179
orm	-180
))	-181
aw	-182
od	-183
())	-184
▁N	-185
up	-186
age	-187
▁/	-188
▁Ok	-189
ith	-190
▁P	-191
▁con	-192
00	-193
ess	-194
ff	-195
int	-196
set	-197
bu	-198
ve	-199
ver	-200
cl	-201
fa	-202
core	-203
▁Self	-204
ial	-205
▁the	-206
po	-207
ext	-208
ok	-209
ure	-210
▁A	-211
ath	-212
ct	-213
▁::	-214
key	-215
▁match	-216
urn	-217
into	-218
▁h	-219
ine	-220
>,	-221
string	-222
eturn	-223
▁V	-224
▁un	-225
64	-226
ist	-227
iter	-228
.0	-229
▁+	-230
▁g	-231
unt	-232
exp	-233
end	-234
map	-235
able	-236
name	-237
▁D	-238
!("	-239
fe	-240
ormat	-241
(|	-242
ir	-243
all	-244
▁B	-245
per	-246
▁F	-247
▁res	-248
ack	-249
oc	-250
lock	-251
());	-252
yn	-253
out	-254
▁\	-255
test	-256
pt	-257
ite	-258
▁None	-259
ner	-260
art	-261
eld	-262
▁Result	-263
St	-264
val	-265
len	-266
::<	-267
fault	-268
ment	-269
▁for	-270
pon	-271
▁2	-272
ht	-273
ain	-274
usize	-275
ans	-276
▁tr	-277
▁|	-278
)?;	-279
Ex	-280
sa	-281
clone	-282
TR	-283
ile	-284
▁return	-285
LI	-286
));	-287
▁`	-288
yt	-289
Result	-290
pro	-291
▁to	-292
tring	-293
fig	-294
uest	-295
▁);	-296
add	-297
sion	-298
error	-299
▁I	-300
ait	-301
else	-302
value	-303
ref	-304
ase	-305
▁M	-306
ader	-307
ity	-308
uil	-309
▁};	-310
safe	-311
Con	-312
nd	-313
ash	-314
▁");	-315
qu	-316
▁de	-317
▁th	-318
ction	-319
vi	-320
fo	-321
▁,	-322
ponse	-323
▁[	-324
mt	-325
Type	-326
text	-327
dex	-328
our	-329
)]	-330
par	-331
ort	-332
▁e	-333
▁is	-334
ime	-335
write	-336
LINE	-337
▁unsafe	-338
▁test	-339
NEW	-340
▁STR	-341
und	-342
NEWLINE	-343
<'	-344
ren	-345
indow	-346
▁else	-347
Re	-348
▁STRNEWLINE	-349
ool	-350
],	-351
>>	-352
line	-353
ytes	-354
ang	-355
ject	-356
col	-357
![	-358
ib	-359
vent	-360
▁!	-361
▁<	-362
son	-363
ip	-364
expect	-365
oken	-366
lient	-367
▁x	-368
read	-369
count	-370
▁Err	-371
ight	-372
▁new	-373
await	-374
path	-375
with	-376
erial	-377
if	-378
op	-379
data	-380
alse	-381
▁usize	-382
ource	-383
ush	-384
rate	-385
▁value	-386
▁==	-387
dd	-388
▁se	-389
ast	-390
>(	-391
▁ch	-392
red	-393
xt	-394
ync	-395
act	-396
Un	-397
pa	-398
omm	-399
type	-400
▁E	-401
default	-402
size	-403
input	-404
json	-405
essage	-406
window	-407
uilder	-408
▁'	-409
▁Vec	-410
ign	-411
ox	-412
inner	-413
ive	-414
ust	-415
reate	-416
▁})	-417
Id	-418
arg	-419
▁crate	-420
stru	-421
▁In	-422
▁pro	-423
▁},	-424
▁std	-425
▁")	-426
(_	-427
crate	-428
tok	-429
▁>	-430
stat	-431
mpl	-432
▁W	-433
bject	-434
(1	-435
▁of	-436
..	-437
des	-438
▁vec	-439
Kind	-440
▁req	-441
ance	-442
pr	-443
push	-444
ord	-445
rg	-446
ant	-447
vice	-448
windows	-449
▁from	-450
next	-451
▁false	-452
▁format	-453
0,	-454
code	-455
ax	-456
>)	-457
ator	-458
iv	-459
ition	-460
▁L	-461
ffer	-462
her	-463
sh	-464
mo	-465
ptr	-466
▁id	-467
cess	-468
▁G	-469
rent	-470
mem	-471
andle	-472
sp	-473
▁name	-474
low	-475
String	-476
trans	-477
lect	-478
ned	-479
▁par	-480
ress	-481
utput	-482
ifi	-483
result	-484
field	-485
▁ex	-486
cri	-487
tern	-488
token	-489
▁this	-490
▁Option	-491
ach	-492
bytes	-493
ound	-494
▁0,	-495
std	-496
▁get	-497
ield	-498
▁H	-499
const	-500
▁bool	-501
inline	-502
ffset	-503
eck	-504
of	-505
sm	-506
▁lo	-507
state	-508
ream	-509
Res	-510
ber	-511
ore	-512
port	-513
doc	-514
pos	-515
ER	-516
ery	-517
▁?	-518
file	-519
▁&[	-520
ull	-521
tp	-522
ody	-523
index	-524
date	-525
raw	-526
sg	-527
valid	-528
os	-529
vec	-530
ild	-531
ire	-532
▁en	-533
row	-534
eg	-535
▁data	-536
▁input	-537
ass	-538
header	-539
▁3	-540
rc	-541
▁".	-542
Value	-543
arget	-544
ory	-545
ection	-546
erialize	-547
Pro	-548
▁key	-549
Self	-550
16	-551
▁"]	-552
use	-553
()),	-554
1,	-555
ail	-556
ard	-557
▁true	-558
this	-559
roup	-560
▁result	-561
];	-562
Ke	-563
ange	-564
req	-565
num	-566
ener	-567
▁pr	-568
var	-569
loc	-570
▁U	-571
ON	-572
block	-573
pe	-574
▁4	-575
mode	-576
own	-577
ers	-578
Key	-579
lice	-580
ule	-581
ithy	-582
smithy	-583
io	-584
▁String	-585
its	-586
buf	-587
▁Error	-588
ies	-589
ork	-590
struct	-591
32,	-592
▁set	-593
(())	-594
ry	-595
uf	-596
De	-597
ake	-598
ature	-599
(0	-600
ask	-601
ception	-602
ree	-603
▁"),	-604
com	-605
tx	-606
fmt	-607
▁Con	-608
12	-609
cont	-610
Option	-611
item	-612
equest	-613
ty	-614
▁an	-615
RE	-616
ify	-617
)),	-618
▁y	-619
config	-620
Vec	-621
▁async	-622
ary	-623
fg	-624
parse	-625
eth	-626
IN	-627
▁val	-628
client	-629
▁token	-630
url	-631
action	-632
▁k	-633
tem	-634
gr	-635
load	-636
ister	-637
mp	-638
bug	-639
insert	-640
▁add	-641
reg	-642
output	-643
▁write	-644
▁arg	-645
ace	-646
query	-647
fin	-648
.0,	-649
AT	-650
cur	-651
format	-652
8,	-653
lement	-654
__	-655
ErrorKind	-656
expected	-657
ommand	-658
info	-659
pty	-660
start	-661
hash	-662
▁fmt	-663
lag	-664
▁").	-665
0000	-666
ix	-667
atus	-668
▁]	-669
pp	-670
ock	-671
▁error	-672
▁sh	-673
ew	-674
handle	-675
2,	-676
peration	-677
▁});	-678
ute	-679
root	-680
>::	-681
((	-682
▁path	-683
node	-684
amp	-685
try	-686
Request	-687
▁builder	-688
collect	-689
ethod	-690
uration	-691
▁use	-692
▁sp	-693
▁not	-694
point	-695
face	-696
jo	-697
param	-698
ak	-699
Data	-700
SE	-701
()).	-702
attr	-703
here	-704
▁com	-705
].	-706
Exception	-707
zure	-708
ws	-709
▁&'	-710
empty	-711
oo	-712
Ch	-713
Builder	-714
time	-715
unction	-716
▁field	-717
pre	-718
25	-719
sub	-720
nel	-721
LE	-722
Response	-723
▁St	-724
slice	-725
▁cont	-726
ge	-727
dir	-728
ded	-729
not	-730
yst	-731
ost	-732
cfg	-733
lay	-734
static	-735
▁and	-736
State	-737
body	-738
()>	-739
uper	-740
▁ser	-741
min	-742
ete	-743
list	-744
uth	-745
ystem	-746
ln	-747
▁..	-748
▁print	-749
▁or	-750
ink	-751
▁state	-752
)?	-753
ll	-754
Par	-755
move	-756
offset	-757
▁5	-758
▁output	-759
[0	-760
request	-761
app	-762
entity	-763
init	-764
En	-765
▁!=	-766
ST	-767
▁where	-768
ym	-769
ps	-770
ther	-771
▁aws	-772
_1	-773
inter	-774
▁file	-775
ence	-776
▁err	-777
cript	-778
be	-779
Set	-780
ys	-781
<()>	-782
response	-783
▁sub	-784
allow	-785
▁with	-786
way	-787
deserialize	-788
▁string	-789
pdate	-790
SI	-791
cal	-792
▁cur	-793
Tr	-794
ument	-795
option	-796
ef	-797
model	-798
FF	-799
Map	-800
▁wh	-801
ues	-802
ates	-803
cription	-804
])	-805
orage	-806
▁impl	-807
Inter	-808
<&	-809
▁col	-810
buffer	-811
back	-812
▁Box	-813
▁config	-814
uffer	-815
rame	-816
work	-817
ated	-818
▁out	-819
form	-820
mute	-821
ount	-822
addr	-823
▁expected	-824
entry	-825
annel	-826
gen	-827
for	-828
000	-829
lags	-830
Event	-831
Format	-832
64,	-833
Ser	-834
ccess	-835
cap	-836
context	-837
OR	-838
▁parse	-839
http	-840
▁azure	-841
dec	-842
fil	-843
ss	-844
▁response	-845
gth	-846
Ref	-847
▁on	-848
▁Ex	-849
sor	-850
▁object	-851
transmute	-852
ypes	-853
vert	-854
eta	-855
message	-856
▁request	-857
nown	-858
idth	-859
call	-860
▁+=	-861
imit	-862
sen	-863
proto	-864
unk	-865
ote	-866
send	-867
ccount	-868
32)	-869
▁;	-870
Config	-871
ish	-872
owned	-873
check	-874
▁block	-875
▁type	-876
lic	-877
pace	-878
ero	-879
Token	-880
▁println	-881
event	-882
ly	-883
None	-884
args	-885
uild	-886
base	-887
bal	-888
▁other	-889
stance	-890
▁al	-891
3,	-892
fix	-893
vel	-894
ized	-895
▁num	-896
conn	-897
iled	-898
odule	-899
▁1,	-900
▁pre	-901
▁index	-902
ector	-903
mm	-904
table	-905
▁const	-906
]);	-907
log	-908
ari	-909
▁&&	-910
eight	-911
List	-912
▁be	-913
▁op	-914
<(),	-915
max	-916
ual	-917
Output	-918
ics	-919
(_)	-920
<'_	-921
oul	-922
rray	-923
ures	-924
ob	-925
Code	-926
▁len	-927
▁start	-928
chem	-929
ould	-930
ep	-931
Get	-932
Some	-933
▁des	-934
()?;	-935
1.	-936
height	-937
match	-938
Input	-939
EN	-940
▁str	-941
irect	-942
Item	-943
▁ver	-944
expr	-945
",	-946
ways	-947
word	-948
ternal	-949
version	-950
ings	-951
▁node	-952
struction	-953
status	-954
join	-955
▁"))	-956
▁read	-957
address	-958
cop	-959
true	-960
01	-961
build	-962
buil	-963
Add	-964
▁cl	-965
oint	-966
null	-967
▁param	-968
▁buf	-969
plic	-970
ttp	-971
create	-972
Interface	-973
ID	-974
▁client	-975
Path	-976
AR	-977
bind	-978
anic	-979
Int	-980
ng	-981
oll	-982
ark	-983
ache	-984
play	-985
▁Return	-986
▁__	-987
▁||	-988
ld	-989
ml	-990
(::	-991
sig	-992
account	-993
lib	-994
dyn	-995
▁8	-996
▁size	-997
target	-998
Info	-999
ific	-1000
group	-1001
sed	-1002
sum	-1003
tract	-1004
Des	-1005
perand	-1006
vo	-1007
ential	-1008
aph	-1009
ailed	-1010
msg	-1011
super	-1012
isit	-1013
que	-1014
()?	-1015
Not	-1016
ove	-1017
bits	-1018
Impl	-1019
builder	-1020
▁formatter	-1021
kind	-1022
always	-1023
serial	-1024
ces	-1025
md	-1026
stream	-1027
ames	-1028
ill	-1029
▁create	-1030
izer	-1031
ains	-1032
(*	-1033
▁ret	-1034
▁end	-1035
etad	-1036
orrow	-1037
>(&	-1038
Box	-1039
OL	-1040
▁log	-1041
etadata	-1042
ler	-1043
char	-1044
▁trans	-1045
crib	-1046
▁De	-1047
zero	-1048
5,	-1049
Param	-1050
umn	-1051
SET	-1052
)).	-1053
ctx	-1054
dis	-1055
feature	-1056
Status	-1057
(||	-1058
ri	-1059
yle	-1060
Message	-1061
▁1;	-1062
cast	-1063
.0.	-1064
pair	-1065
_2	-1066
▁max	-1067
known	-1068
▁target	-1069
▁ro	-1070
af	-1071
operation	-1072
Qu	-1073
rec	-1074
hs	-1075
abel	-1076
Formatter	-1077
redential	-1078
Reg	-1079
IT	-1080
▁Reg	-1081
▁loc	-1082
MA	-1083
▁6	-1084
(2	-1085
igin	-1086
unc	-1087
Node	-1088
chema	-1089
Or	-1090
▁item	-1091
▁event	-1092
ont	-1093
▁Get	-1094
ell	-1095
▁call	-1096
▁run	-1097
og	-1098
256	-1099
ud	-1100
ha	-1101
Object	-1102
onic	-1103
ifier	-1104
db	-1105
▁")]	-1106
▁Returns	-1107
arch	-1108
▁mem	-1109
▁msg	-1110
Context	-1111
▁Into	-1112
▁extern	-1113
env	-1114
filter	-1115
idx	-1116
▁ap	-1117
number	-1118
sing	-1119
asm	-1120
ert	-1121
▁reg	-1122
▁map	-1123
yte	-1124
cx	-1125
▁10	-1126
ide	-1127
old	-1128
cope	-1129
aws	-1130
▁message	-1131
lot	-1132
sign	-1133
Com	-1134
▁ctx	-1135
les	-1136
Mode	-1137
no	-1138
fer	-1139
any	-1140
4,	-1141
eter	-1142
▁pos	-1143
▁conn	-1144
▁check	-1145
AC	-1146
by	-1147
vari	-1148
protobuf	-1149
pc	-1150
Invalid	-1151
Str	-1152
Stream	-1153
cond	-1154
update	-1155
ply	-1156
ample	-1157
acket	-1158
uture	-1159
types	-1160
user	-1161
ses	-1162
▁Ch	-1163
UL	-1164
AB	-1165
▁stringify	-1166
▁Hash	-1167
AL	-1168
▁default	-1169
▁j	-1170
▁list	-1171
▁fe	-1172
ger	-1173
[1	-1174
ression	-1175
▁panic	-1176
▁Value	-1177
▁_,	-1178
▁user	-1179
DE	-1180
pub	-1181
tag	-1182
rt	-1183
ick	-1184
▁debug	-1185
cribe	-1186
anag	-1187
etwork	-1188
▁info	-1189
2.	-1190
case	-1191
ayload	-1192
av	-1193
▁tokens	-1194
Block	-1195
▁args	-1196
Cont	-1197
Wr	-1198
▁dec	-1199
▁current	-1200
ommit	-1201
▁{}	-1202
<'_>)	-1203
writer	-1204
current	-1205
debug	-1206
▁bytes	-1207
mage	-1208
ilter	-1209
▁context	-1210
FFSET	-1211
used	-1212
finish	-1213
20	-1214
scription	-1215
▁The	-1216
gram	-1217
rop	-1218
cy	-1219
ong	-1220
▁lib	-1221
▁next	-1222
ME	-1223
exec	-1224
ution	-1225
▁Par	-1226
run	-1227
▁env	-1228
ustom	-1229
cle	-1230
▁Un	-1231
▁J	-1232
▁kind	-1233
uri	-1234
At	-1235
andler	-1236
▁0;	-1237
ices	-1238
bo	-1239
▁at	-1240
▁time	-1241
▁Arc	-1242
bol	-1243
none	-1244
chain	-1245
10	-1246
are	-1247
erm	-1248
▁),	-1249
Found	-1250
ymbol	-1251
▁root	-1252
▁hash	-1253
uthor	-1254
box	-1255
▁0..	-1256
serialize	-1257
ocket	-1258
store	-1259
▁tx	-1260
span	-1261
AN	-1262
UT	-1263
ative	-1264
ION	-1265
▁buffer	-1266
void	-1267
contains	-1268
position	-1269
▁Re	-1270
part	-1271
width	-1272
bit	-1273
range	-1274
Trans	-1275
▁text	-1276
▁Pro	-1277
ired	-1278
ating	-1279
Hash	-1280
uple	-1281
ident	-1282
ice	-1283
reak	-1284
ension	-1285
eb	-1286
Mut	-1287
▁%	-1288
_,	-1289
cp	-1290
ations	-1291
ug	-1292
istr	-1293
▁pa	-1294
▁(*	-1295
64)	-1296
Service	-1297
last	-1298
▁0.	-1299
▁foo	-1300
cs	-1301
arr	-1302
Name	-1303
kip	-1304
ffi	-1305
opt	-1306
borrow	-1307
▁gener	-1308
▁Token	-1309
File	-1310
ek	-1311
▁spec	-1312
erializer	-1313
place	-1314
▁7	-1315
sc	-1316
rol	-1317
`.	-1318
▁z	-1319
view	-1320
ages	-1321
Ok	-1322
11	-1323
00,	-1324
▁Tr	-1325
ariant	-1326
▁io	-1327
iew	-1328
▁inner	-1329
ponent	-1330
object	-1331
ql	-1332
cat	-1333
child	-1334
▁Test	-1335
▁build	-1336
▁init	-1337
▁Impl	-1338
vid	-1339
copy	-1340
acity	-1341
ft	-1342
PI	-1343
▁can	-1344
▁min	-1345
[..	-1346
source	-1347
▁En	-1348
▁source	-1349
▁move	-1350
elete	-1351
▁main	-1352
▁Register	-1353
values	-1354
uct	-1355
criptor	-1356
▁url	-1357
odes	-1358
Unknown	-1359
lobal	-1360
etr	-1361
false	-1362
▁$	-1363
gener	-1364
▁[`	-1365
untime	-1366
▁json	-1367
ved	-1368
impl	-1369
Op	-1370
▁header	-1371
Field	-1372
▁offset	-1373
▁));	-1374
ause	-1375
handled	-1376
▁http	-1377
▁line	-1378
ULT	-1379
AD	-1380
params	-1381
6,	-1382
▁that	-1383
▁try	-1384
`]	-1385
▁))	-1386
ected	-1387
Size	-1388
Group	-1389
128	-1390
▁act	-1391
arn	-1392
api	-1393
▁()	-1394
▁resource	-1395
ret	-1396
del	-1397
ization	-1398
length	-1399
comp	-1400
UN	-1401
bin	-1402
assert	-1403
signed	-1404
loat	-1405
upport	-1406
▁while	-1407
Client	-1408
tings	-1409
TE	-1410
fs	-1411
plit	-1412
imest	-1413
remove	-1414
▁2,	-1415
olic	-1416
▁base	-1417
attrib	-1418
▁_)	-1419
Rec	-1420
non	-1421
0.	-1422
anager	-1423
▁9	-1424
▁exp	-1425
▁co	-1426
Time	-1427
queue	-1428
▁handle	-1429
>>,	-1430
order	-1431
RES	-1432
Cl	-1433
imestamp	-1434
()))	-1435
fl	-1436
imp	-1437
cret	-1438
az	-1439
▁Fn	-1440
Create	-1441
Sp	-1442
8;	-1443
sync	-1444
NO	-1445
Col	-1446
perty	-1447
encode	-1448
eader	-1449
ified	-1450
led	-1451
Query	-1452
content	-1453
fir	-1454
Num	-1455
▁status	-1456
append	-1457
atures	-1458
▁dis	-1459
method	-1460
_000	-1461
▁core	-1462
▁Res	-1463
bl	-1464
▁code	-1465
etch	-1466
andom	-1467
aybe	-1468
▁query	-1469
MM	-1470
Array	-1471
Arg	-1472
Call	-1473
plication	-1474
mod	-1475
uid	-1476
▁break	-1477
▁Send	-1478
bound	-1479
▁stream	-1480
(&[	-1481
color	-1482
End	-1483
▁matches	-1484
command	-1485
Al	-1486
▁serde	-1487
atur	-1488
()));	-1489
evel	-1490
some	-1491
▁qu	-1492
00000000	-1493
▁tag	-1494
1:	-1495
CE	-1496
ding	-1497
Options	-1498
▁Create	-1499
raph	-1500
▁Com	-1501
▁update	-1502
▁"));	-1503
▁0);	-1504
ave	-1505
mark	-1506
iven	-1507
(0,	-1508
▁rec	-1509
abi	-1510
▁into	-1511
1_	-1512
▁valid	-1513
RO	-1514
▁version	-1515
▁db	-1516
▁12	-1517
array	-1518
cc	-1519
▁send	-1520
ward	-1521
pool	-1522
▁Default	-1523
▁Cre	-1524
Ver	-1525
▁ptr	-1526
eer	-1527
▁mode	-1528
local	-1529
▁system	-1530
parent	-1531
▁Set	-1532
ms	-1533
▁function	-1534
▁(&	-1535
▁inter	-1536
▁iter	-1537
Default	-1538
Test	-1539
channel	-1540
▁content	-1541
dering	-1542
orld	-1543
▁<<	-1544
LO	-1545
Resource	-1546
eters	-1547
finition	-1548
olicy	-1549
iver	-1550
_|	-1551
▁":	-1552
ments	-1553
Index	-1554
<_	-1555
▁Id	-1556
ench	-1557
nap	-1558
server	-1559
7,	-1560
equ	-1561
▁1);	-1562
lection	-1563
('	-1564
▁count	-1565
Update	-1566
Conn	-1567
ls	-1568
▁Creates	-1569
▁by	-1570
checked	-1571
awn	-1572
enum	-1573
▁address	-1574
▁it	-1575
▁should	-1576
storage	-1577
can	-1578
fr	-1579
ification	-1580
▁ab	-1581
tree	-1582
▁Type	-1583
▁all	-1584
▁body	-1585
▁loop	-1586
▁account	-1587
igh	-1588
MP	-1589
▁isize	-1590
writ	-1591
down	-1592
19	-1593
GE	-1594
utes	-1595
frame	-1596
▁operand	-1597
ending	-1598
dk	-1599
atic	-1600
Read	-1601
▁ref	-1602
Dis	-1603
▁entry	-1604
▁app	-1605
capacity	-1606
ical	-1607
uccess	-1608
level	-1609
open	-1610
aint	-1611
Val	-1612
irst	-1613
bool	-1614
▁ne	-1615
pi	-1616
▁>>	-1617
decode	-1618
round	-1619
▁last	-1620
▁local	-1621
▁concat	-1622
shot	-1623
convert	-1624
calar	-1625
roll	-1626
▁sign	-1627
extend	-1628
Element	-1629
cryp	-1630
▁16	-1631
▁params	-1632
▁given	-1633
edi	-1634
deser	-1635
▁any	-1636
eger	-1637
ulti	-1638
itle	-1639
main	-1640
<(	-1641
▁subscription	-1642
ormal	-1643
eft	-1644
pu	-1645
Into	-1646
▁src	-1647
▁option	-1648
air	-1649
2_	-1650
spec	-1651
▁ty	-1652
head	-1653
Flags	-1654
CT	-1655
tokens	-1656
SION	-1657
▁//	-1658
ivate	-1659
▁q	-1660
Tree	-1661
unter	-1662
Sh	-1663
MB	-1664
nder	-1665
");	-1666
▁group	-1667
▁libc	-1668
rs	-1669
pack	-1670
".	-1671
.1	-1672
Method	-1673
attern	-1674
function	-1675
▁";	-1676
coding	-1677
To	-1678
cmp	-1679
Text	-1680
ZE	-1681
ie	-1682
keys	-1683
napshot	-1684
Buf	-1685
▁X	-1686
abled	-1687
▁has	-1688
ude	-1689
process	-1690
over	-1691
def	-1692
▁failed	-1693
▁K	-1694
oder	-1695
left	-1696
▁part	-1697
ph	-1698
34	-1699
space	-1700
top	-1701
find	-1702
SY	-1703
fn	-1704
allet	-1705
patch	-1706
▁pl	-1707
Mem	-1708
>()	-1709
▁credential	-1710
cli	-1711
▁exec	-1712
tuple	-1713
ape	-1714
▁server	-1715
▁@	-1716
headers	-1717
ted	-1718
ines	-1719
▁Or	-1720
skip	-1721
unused	-1722
FI	-1723
style	-1724
pose	-1725
thread	-1726
atab	-1727
▁method	-1728
link	-1729
ayout	-1730
mount	-1731
▁found	-1732
ten	-1733
atr	-1734
2::	-1735
▁del	-1736
ids	-1737
PE	-1738
▁number	-1739
▁height	-1740
erge	-1741
▁opt	-1742
task	-1743
stant	-1744
8)	-1745
▁command	-1746
plate	-1747
Access	-1748
▁OFFSET	-1749
Account	-1750
other	-1751
atabase	-1752
print	-1753
)|	-1754
take	-1755
)))	-1756
reader	-1757
irection	-1758
erence	-1759
())?;	-1760
▁Node	-1761
utt	-1762
fields	-1763
▁>=	-1764
▁child	-1765
stack	-1766
Dec	-1767
dep	-1768
)));	-1769
0_	-1770
ender	-1771
An	-1772
VER	-1773
device	-1774
posit	-1775
alloc	-1776
ook	-1777
CH	-1778
EX	-1779
▁first	-1780
From	-1781
▁no	-1782
element	-1783
Th	-1784
etail	-1785
Identity	-1786
▁tmp	-1787
ient	-1788
▁")?;	-1789
cache	-1790
dr	-1791
prefix	-1792
Sub	-1793
▁super	-1794
terator	-1795
`](	-1796
ility	-1797
matches	-1798
resource	-1799
variant	-1800
ready	-1801
oto	-1802
omain	-1803
▁("	-1804
now	-1805
STR	-1806
Unhandled	-1807
(3	-1808
label	-1809
layout	-1810
(|_|	-1811
atrix	-1812
Delete	-1813
sys	-1814
chunk	-1815
▁values	-1816
▁addr	-1817
vm	-1818
9,	-1819
▁Path	-1820
▁}),	-1821
pression	-1822
ables	-1823
▁As	-1824
56	-1825
▁(::	-1826
▁meta	-1827
▁Weight	-1828
uster	-1829
Server	-1830
)?,	-1831
Expr	-1832
0);	-1833
TY	-1834
▁parent	-1835
ules	-1836
ision	-1837
NotFound	-1838
ched	-1839
lose	-1840
CO	-1841
utton	-1842
transaction	-1843
ties	-1844
cre	-1845
first	-1846
▁window	-1847
24	-1848
secret	-1849
__.	-1850
▁0.0	-1851
trib	-1852
uments	-1853
service	-1854
▁doc	-1855
SIZE	-1856
▁width	-1857
▁raw	-1858
Point	-1859
layer	-1860
rect	-1861
▁table	-1862
▁Key	-1863
then	-1864
▁Q	-1865
▁visit	-1866
vtable	-1867
lem	-1868
ift	-1869
di	-1870
bindgen	-1871
▁variant	-1872
Addr	-1873
balance	-1874
module	-1875
▁up	-1876
perties	-1877
32;	-1878
pin	-1879
execute	-1880
Loc	-1881
pop	-1882
satur	-1883
register	-1884
Pr	-1885
▁var	-1886
▁char	-1887
For	-1888
▁thread	-1889
Number	-1890
[0]	-1891
2:	-1892
▁row	-1893
(1,	-1894
access	-1895
serde	-1896
sw	-1897
schema	-1898
AS	-1899
src	-1900
▁Dec	-1901
names	-1902
rl	-1903
ied	-1904
metadata	-1905
cket	-1906
▁span	-1907
poch	-1908
bj	-1909
cale	-1910
uard	-1911
net	-1912
8])	-1913
▁struct	-1914
▁Add	-1915
Buffer	-1916
flags	-1917
tocol	-1918
Command	-1919
how	-1920
▁instance	-1921
▁color	-1922
lex	-1923
User	-1924
▁Event	-1925
amount	-1926
8],	-1927
saturating	-1928
>>(	-1929
RESULT	-1930
vider	-1931
fd	-1932
gine	-1933
▁Trans	-1934
▁Bit	-1935
▁work	-1936
graph	-1937
On	-1938
▁TAB	-1939
cept	-1940
Version	-1941
ank	-1942
options	-1943
▁do	-1944
flow	-1945
instance	-1946
br	-1947
ATION	-1948
image	-1949
class	-1950
▁tem	-1951
▁frame	-1952
ainer	-1953
ible	-1954
split	-1955
▁HashMap	-1956
resh	-1957
Address	-1958
issing	-1959
32::	-1960
ists	-1961
ta	-1962
▁rhs	-1963
▁Wr	-1964
record	-1965
sent	-1966
select	-1967
ateg	-1968
wh	-1969
64::	-1970
inue	-1971
ins	-1972
ommon	-1973
0:	-1974
custom	-1975
_3	-1976
▁comp	-1977
angle	-1978
ma	-1979
igned	-1980
clear	-1981
ission	-1982
▁array	-1983
bs	-1984
column	-1985
Header	-1986
iteral	-1987
▁length	-1988
▁Th	-1989
▁int	-1990
ENT	-1991
▁rng	-1992
▁im	-1993
▁non	-1994
Msg	-1995
▁writer	-1996
ear	-1997
▁)?;	-1998
Pl	-1999
upported	-2000
otal	-2001
▁tests	-2002
commit	-2003
slot	-2004
HRESULT	-2005
entr	-2006
ities	-2007
]),	-2008
▁back	-2009
oci	-2010
byte	-2011
TH	-2012
host	-2013
rece	-2014
▁sys	-2015
Register	-2016
55	-2017
right	-2018
sz	-2019
anch	-2020
▁0.0,	-2021
▁<=	-2022
Handle	-2023
Action	-2024
(|(	-2025
▁lock	-2026
▁stack	-2027
exception	-2028
▁fields	-2029
glib	-2030
ise	-2031
(4	-2032
location	-2033
ns	-2034
▁load	-2035
▁channel	-2036
▁Win	-2037
rust	-2038
MBOL	-2039
▁Failed	-2040
0;	-2041
▁Data	-2042
xmm	-2043
▁3,	-2044
▁process	-2045
ING	-2046
actor	-2047
▁expr	-2048
SYMBOL	-2049
ATE	-2050
imitive	-2051
▁cmd	-2052
async	-2053
CK	-2054
Entry	-2055
▁32	-2056
anges	-2057
Device	-2058
Bytes	-2059
▁^	-2060
Pub	-2061
▁Sp	-2062
▁task	-2063
▁dir	-2064
())).	-2065
pairs	-2066
99	-2067
▁right	-2068
▁bar	-2069
tom	-2070
structure	-2071
utf	-2072
mask	-2073
!(!	-2074
irectory	-2075
we	-2076
▁bind	-2077
)>	-2078
Sdk	-2079
endpoint	-2080
OD	-2081
▁em	-2082
xy	-2083
▁TABSYMBOL	-2084
▁Block	-2085
1);	-2086
sure	-2087
Table	-2088
▁wasm	-2089
imal	-2090
▁hel	-2091
ping	-2092
cmd	-2093
[0].	-2094
peer	-2095
public	-2096
session	-2097
Instruction	-2098
make	-2099
▁File	-2100
))?;	-2101
connection	-2102
ared	-2103
inst	-2104
ui	-2105
Log	-2106
limit	-2107
pute	-2108
▁Des	-2109
spawn	-2110
▁fil	-2111
▁ffi	-2112
ts	-2113
▁gl	-2114
▁fl	-2115
▁ar	-2116
second	-2117
▁Col	-2118
▁serialize	-2119
▁rece	-2120
▁features	-2121
<::	-2122
cent	-2123
▁drop	-2124
▁dep	-2125
ixel	-2126
ower	-2127
lease	-2128
▁Ser	-2129
etails	-2130
Color	-2131
▁filter	-2132
▁Al	-2133
usoto	-2134
};	-2135
sender	-2136
▁tonic	-2137
Sign	-2138
[2	-2139
amed	-2140
▁are	-2141
ampl	-2142
▁device	-2143
▁ad	-2144
>>::	-2145
▁cause	-2146
▁ident	-2147
eline	-2148
usotoError	-2149
Tag	-2150
.0);	-2151
instr	-2152
itor	-2153
ness	-2154
author	-2155
display	-2156
inary	-2157
ignment	-2158
Describe	-2159
gl	-2160
▁reader	-2161
80	-2162
▁us	-2163
Cur	-2164
ous	-2165
util	-2166
den	-2167
idget	-2168
assword	-2169
▁State	-2170
▁element	-2171
ume	-2172
lean	-2173
wo	-2174
imple	-2175
ump	-2176
ppy	-2177
Uninit	-2178
ole	-2179
View	-2180
▁module	-2181
ryp	-2182
86	-2183
oot	-2184
40	-2185
▁total	-2186
Source	-2187
▁over	-2188
▁class	-2189
ian	-2190
Internal	-2191
acro	-2192
change	-2193
▁per	-2194
▁trace	-2195
▁List	-2196
clude	-2197
▁mod	-2198
__)	-2199
15	-2200
mul	-2201
DI	-2202
▁20	-2203
entries	-2204
older	-2205
Arc	-2206
ault	-2207
timeout	-2208
32>	-2209
▁point	-2210
▁})?;	-2211
ources	-2212
▁left	-2213
AME	-2214
draw	-2215
Function	-2216
erate	-2217
return	-2218
nodes	-2219
nt	-2220
du	-2221
perator	-2222
▁returns	-2223
▁100	-2224
payload	-2225
NONE	-2226
istry	-2227
▁bit	-2228
13	-2229
▁link	-2230
▁construct	-2231
irt	-2232
)(::	-2233
▁scope	-2234
▁Command	-2235
ency	-2236
cursor	-2237
▁uri	-2238
As	-2239
umm	-2240
(5	-2241
▁one	-2242
future	-2243
esh	-2244
▁image	-2245
Body	-2246
▁action	-2247
ailure	-2248
▁amount	-2249
)(	-2250
▁my	-2251
imer	-2252
16,	-2253
MAX	-2254
Duration	-2255
▁Field	-2256
▁invalid	-2257
memory	-2258
ipher	-2259
Ident	-2260
',	-2261
connect	-2262
(_,	-2263
▁make	-2264
tcx	-2265
▁obj	-2266
Ext	-2267
▁di	-2268
▁1)	-2269
aybeUninit	-2270
▁dest	-2271
Image	-2272
CON	-2273
clippy	-2274
▁range	-2275
sl	-2276
ession	-2277
scope	-2278
ade	-2279
rot	-2280
initial	-2281
▁position	-2282
14	-2283
▁cap	-2284
ailable	-2285
▁options	-2286
has	-2287
straint	-2288
![],	-2289
▁store	-2290
▁ed	-2291
obj	-2292
lob	-2293
tal	-2294
Filter	-2295
pare	-2296
Operation	-2297
▁idx	-2298
Start	-2299
<_>>	-2300
equired	-2301
credential	-2302
olve	-2303
With	-2304
tore	-2305
meta	-2306
1)	-2307
▁find	-2308
▁IN	-2309
essages	-2310
Reader	-2311
▁storage	-2312
▁old	-2313
reach	-2314
Transaction	-2315
Valid	-2316
▁_:	-2317
job	-2318
extension	-2319
hel	-2320
ias	-2321
ict	-2322
page	-2323
TI	-2324
US	-2325
Struct	-2326
▁Dis	-2327
▁ID	-2328
visit	-2329
Cell	-2330
acing	-2331
pk	-2332
▁continue	-2333
ariable	-2334
unchecked	-2335
ater	-2336
func	-2337
▁Offset	-2338
3_	-2339
ning	-2340
IUnknown	-2341
system	-2342
▁peer	-2343
ux	-2344
▁Identity	-2345
▁((	-2346
8_	-2347
sens	-2348
▁null	-2349
batch	-2350
ances	-2351
▁static	-2352
zeroed	-2353
8]	-2354
udio	-2355
escap	-2356
▁gen	-2357
auth	-2358
▁Cont	-2359
System	-2360
ackage	-2361
Connection	-2362
fore	-2363
proof	-2364
argo	-2365
transpose	-2366
anged	-2367
ipeline	-2368
▁];	-2369
ached	-2370
OFFSET	-2371
opy	-2372
total	-2373
ination	-2374
▁Expr	-2375
8(	-2376
▁flags	-2377
items	-2378
dest	-2379
▁attr	-2380
odec	-2381
nem	-2382
etrics	-2383
unit	-2384
gress	-2385
tax	-2386
enumerate	-2387
TER	-2388
▁operation	-2389
Of	-2390
files	-2391
Attrib	-2392
ayer	-2393
Configuration	-2394
▁initial	-2395
▁port	-2396
acter	-2397
▁pool	-2398
Module	-2399
oned	-2400
▁encode	-2401
▁connection	-2402
replace	-2403
ived	-2404
tk	-2405
plet	-2406
▁cache	-2407
origin	-2408
gg	-2409
Db	-2410
ACK	-2411
pected	-2412
full	-2413
pointer	-2414
do	-2415
handler	-2416
▁Message	-2417
▁chunk	-2418
seg	-2419
timestamp	-2420
▁transaction	-2421
VERSION	-2422
packet	-2423
render	-2424
▁service	-2425
▁RusotoError	-2426
requ	-2427
▁fr	-2428
▁types	-2429
script	-2430
rel	-2431
MaybeUninit	-2432
reachable	-2433
▁fut	-2434
ua	-2435
▁slice	-2436
region	-2437
▁ses	-2438
▁fs	-2439
Build	-2440
Sec	-2441
rup	-2442
active	-2443
ov	-2444
contract	-2445
▁writ	-2446
leg	-2447
delete	-2448
random	-2449
Instance	-2450
![];	-2451
Out	-2452
mote	-2453
32(	-2454
▁was	-2455
ointer	-2456
--	-2457
▁Context	-2458
yntax	-2459
▁session	-2460
tra	-2461
SS	-2462
attribute	-2463
▁api	-2464
manager	-2465
sort	-2466
Write	-2467
road	-2468
nemonic	-2469
ting	-2470
▁empty	-2471
SdkError	-2472
>(),	-2473
▁Sh	-2474
IUnknownImpl	-2475
attributes	-2476
([	-2477
22	-2478
Pos	-2479
(0)	-2480
▁label	-2481
oft	-2482
▁"))]	-2483
▁column	-2484
50	-2485
uto	-2486
edia	-2487
Future	-2488
ason	-2489
asic	-2490
Definition	-2491
▁Check	-2492
etric	-2493
symbol	-2494
ertific	-2495
board	-2496
Spec	-2497
▁prefix	-2498
▁sig	-2499
▁gr	-2500
Direct	-2501
▁Op	-2502
Enum	-2503
Target	-2504
Exec	-2505
icro	-2506
API	-2507
▁record	-2508
UR	-2509
ats	-2510
egin	-2511
Range	-2512
3.	-2513
▁view	-2514
Task	-2515
inal	-2516
▁man	-2517
unsafe	-2518
river	-2519
abs	-2520
alance	-2521
ee	-2522
0)	-2523
redic	-2524
▁Request	-2525
azy	-2526
▁open	-2527
▁An	-2528
free	-2529
eval	-2530
▁bl	-2531
Parse	-2532
▁1.0	-2533
▁cx	-2534
enu	-2535
actory	-2536
ED	-2537
▁4,	-2538
▁&*	-2539
2)	-2540
▁rust	-2541
▁top	-2542
Writer	-2543
▁")).	-2544
seed	-2545
]).	-2546
ffect	-2547
OK	-2548
_4	-2549
wait	-2550
▁dst	-2551
lear	-2552
global	-2553
cell	-2554
1),	-2555
▁inst	-2556
No	-2557
▁title	-2558
▁mask	-2559
Parameter	-2560
App	-2561
Storage	-2562
(1);	-2563
tity	-2564
Ap	-2565
Descriptor	-2566
PO	-2567
events	-2568
▁tok	-2569
Ab	-2570
▁Read	-2571
▁origin	-2572
▁24	-2573
azure	-2574
▁()).	-2575
▁Invalid	-2576
utor	-2577
EY	-2578
▁expect	-2579
▁System	-2580
maining	-2581
secs	-2582
recv	-2583
2);	-2584
asset	-2585
blocks	-2586
mit	-2587
ingle	-2588
Lo	-2589
eek	-2590
▁anyhow	-2591
78	-2592
roadcast	-2593
▁world	-2594
33	-2595
Pre	-2596
ci	-2597
8>	-2598
▁ow	-2599
64;	-2600
Http	-2601
▁Poll	-2602
Foundation	-2603
andid	-2604
iron	-2605
▁bits	-2606
internal	-2607
▁Required	-2608
success	-2609
Gener	-2610
▁Pr	-2611
ensor	-2612
ling	-2613
!(&	-2614
FA	-2615
▁schema	-2616
!["	-2617
Policy	-2618
▁decode	-2619
esis	-2620
▁1.	-2621
▁eq	-2622
▁clone	-2623
▁select	-2624
▁AsRef	-2625
({	-2626
trace	-2627
UE	-2628
▁ssz	-2629
invalid	-2630
▁Cl	-2631
▁metadata	-2632
Back	-2633
plete	-2634
era	-2635
▁remove	-2636
▁actual	-2637
coder	-2638
aces	-2639
::*	-2640
▁RE	-2641
program	-2642
▁(),	-2643
fail	-2644
cover	-2645
▁],	-2646
Rel	-2647
cb	-2648
And	-2649
enc	-2650
olution	-2651
▁level	-2652
lines	-2653
Weight	-2654
▁Rec	-2655
32_	-2656
ors	-2657
rx	-2658
(0),	-2659
▁payload	-2660
vices	-2661
igest	-2662
ability	-2663
tml	-2664
ich	-2665
ymm	-2666
counter	-2667
verse	-2668
xml	-2669
▁unreachable	-2670
▁Mem	-2671
tokio	-2672
▁ind	-2673
▁quote	-2674
eded	-2675
ference	-2676
▁ast	-2677
::<_,	-2678
peek	-2679
etry	-2680
()?,	-2681
▁cfg	-2682
▁host	-2683
▁Config	-2684
▁func	-2685
2(	-2686
sensus	-2687
▁Duration	-2688
encoding	-2689
copes	-2690
▁Ordering	-2691
LA	-2692
Ass	-2693
02	-2694
quence	-2695
▁Consum	-2696
▁0)	-2697
▁render	-2698
▁graph	-2699
"),	-2700
posal	-2701
imension	-2702
Null	-2703
owner	-2704
irtual	-2705
Window	-2706
points	-2707
▁tree	-2708
section	-2709
Var	-2710
▁This	-2711
Failure	-2712
rng	-2713
chedule	-2714
VE	-2715
Pool	-2716
Float	-2717
PC	-2718
▁sc	-2719
76	-2720
(0);	-2721
Vector	-2722
▁items	-2723
▁feature	-2724
cloned	-2725
::*;	-2726
duration	-2727
oly	-2728
roller	-2729
Frame	-2730
Store	-2731
▁Param	-2732
▁ph	-2733
▁le	-2734
Base	-2735
Class	-2736
achine	-2737
▁temp	-2738
▁round	-2739
weight	-2740
Memory	-2741
signature	-2742
▁Found	-2743
Ed	-2744
ironment	-2745
crust	-2746
?,	-2747
ertificate	-2748
ites	-2749
96	-2750
▁sender	-2751
loy	-2752
Json	-2753
▁Update	-2754
RI	-2755
64(	-2756
Channel	-2757
Url	-2758
Level	-2759
Job	-2760
▁page	-2761
att	-2762
Match	-2763
▁Parse	-2764
vt	-2765
reen	-2766
ithm	-2767
▁Ref	-2768
Rule	-2769
component	-2770
poll	-2771
▁)),	-2772
post	-2773
▁Arg	-2774
Bit	-2775
bench	-2776
UTH	-2777
▁Sync	-2778
▁2);	-2779
ally	-2780
settings	-2781
oolean	-2782
angu	-2783
▁15	-2784
LEN	-2785
urface	-2786
uint	-2787
84	-2788
▁25	-2789
bar	-2790
").	-2791
▁must	-2792
fter	-2793
▁Rc	-2794
iple	-2795
reflect	-2796
▁(0	-2797
Ptr	-2798
75	-2799
stdout	-2800
pha	-2801
ABLE	-2802
64>	-2803
23	-2804
ateway	-2805
▁style	-2806
Property	-2807
▁At	-2808
Act	-2809
rad	-2810
▁requ	-2811
▁Consumes	-2812
32);	-2813
flag	-2814
formation	-2815
socket	-2816
(-	-2817
rupt	-2818
▁[0	-2819
!(),	-2820
▁hr	-2821
▁futures	-2822
rency	-2823
▁&(*	-2824
Doc	-2825
Tem	-2826
3::	-2827
hex	-2828
ced	-2829
Date	-2830
▁cal	-2831
▁names	-2832
▁https	-2833
ressed	-2834
▁insert	-2835
(..	-2836
Em	-2837
▁order	-2838
▁public	-2839
epoch	-2840
illis	-2841
64_	-2842
▁byte	-2843
network	-2844
▁generate	-2845
df	-2846
▁deserialize	-2847
Params	-2848
▁memory	-2849
▁Iterator	-2850
Record	-2851
Session	-2852
align	-2853
▁Int	-2854
olver	-2855
▁chain	-2856
scopes	-2857
SC	-2858
XMM	-2859
255	-2860
Operand	-2861
▁Loc	-2862
agment	-2863
search	-2864
▁cursor	-2865
term	-2866
OT	-2867
::{	-2868
wire	-2869
qual	-2870
Api	-2871
fic	-2872
▁second	-2873
ular	-2874
▁constructs	-2875
found	-2876
-01	-2877
AUTH	-2878
▁Color	-2879
aster	-2880
▁model	-2881
ORI	-2882
tc	-2883
Handler	-2884
ique	-2885
04	-2886
reser	-2887
())),	-2888
Manager	-2889
vis	-2890
enter	-2891
▁packet	-2892
Metadata	-2893
Origin	-2894
▁serializer	-2895
imum	-2896
▁rx	-2897
Part	-2898
▁Status	-2899
rev	-2900
parts	-2901
sample	-2902
uble	-2903
AM	-2904
antom	-2905
arm	-2906
Proto	-2907
Expression	-2908
ped	-2909
▁(_,	-2910
dat	-2911
seq	-2912
unknown	-2913
ier	-2914
▁Point	-2915
Sel	-2916
pubkey	-2917
snapshot	-2918
▁network	-2919
▁asset	-2920
sn	-2921
Char	-2922
17	-2923
▁description	-2924
▁Item	-2925
import	-2926
Public	-2927
AP	-2928
Content	-2929
isitor	-2930
▁Gener	-2931
▁merge	-2932
da	-2933
(1),	-2934
▁mock	-2935
Co	-2936
ifest	-2937
36	-2938
▁only	-2939
ane	-2940
Iterator	-2941
duct	-2942
alk	-2943
▁alloc	-2944
▁register	-2945
▁App	-2946
ernel	-2947
children	-2948
▁br	-2949
uc	-2950
gor	-2951
anguage	-2952
rary	-2953
Line	-2954
▁location	-2955
desc	-2956
chars	-2957
millis	-2958
typ	-2959
▁Val	-2960
apping	-2961
eed	-2962
▁project	-2963
.0)	-2964
▁generic	-2965
▁tokio	-2966
description	-2967
[0],	-2968
▁Foundation	-2969
deref	-2970
ugin	-2971
project	-2972
Control	-2973
member	-2974
off	-2975
vious	-2976
Ow	-2977
▁#,	-2978
▁resp	-2979
leep	-2980
▁Delete	-2981
Up	-2982
Len	-2983
▁random	-2984
callback	-2985
ground	-2986
▁DE	-2987
conf	-2988
ucket	-2989
▁enum	-2990
BuildError	-2991
▁contract	-2992
▁prev	-2993
okup	-2994
▁now	-2995
▁case	-2996
▁queue	-2997
Ordering	-2998
olume	-2999
▁Sub	-3000
▁timeout	-3001
▁Write	-3002
▁SE	-3003
ixed	-3004
Mod	-3005
▁Account	-3006
etime	-3007
rows	-3008
idden	-3009
OP	-3010
temp	-3011
[1]	-3012
▁Ph	-3013
tmp	-3014
fetch	-3015
lish	-3016
▁5,	-3017
▁&(*(::	-3018
aml	-3019
▁Z	-3020
ds	-3021
dist	-3022
ancel	-3023
Cache	-3024
cu	-3025
Style	-3026
step	-3027
▁dyn	-3028
te	-3029
Dep	-3030
Raw	-3031
parameters	-3032
▁ac	-3033
▁used	-3034
.5	-3035
▁slot	-3036
exists	-3037
0000000000000000	-3038
▁serial	-3039
itch	-3040
▁limit	-3041
zip	-3042
')	-3043
agn	-3044
▁proto	-3045
ermin	-3046
cor	-3047
▁-=	-3048
direct	-3049
▁bound	-3050
Env	-3051
parser	-3052
py	-3053
▁signature	-3054
only	-3055
▁Y	-3056
div	-3057
▁Client	-3058
close	-3059
FO	-3060
Ready	-3061
seconds	-3062
▁Call	-3063
control	-3064
reshold	-3065
Sha	-3066
74	-3067
▁specified	-3068
property	-3069
panic	-3070
▁acc	-3071
18	-3072
Local	-3073
fee	-3074
.0).	-3075
(10	-3076
hr	-3077
Lock	-3078
Ad	-3079
▁commit	-3080
ALI	-3081
▁os	-3082
dition	-3083
30	-3084
["	-3085
DB	-3086
ba	-3087
cv	-3088
▁def	-3089
istory	-3090
▁reference	-3091
>())).	-3092
guard	-3093
icros	-3094
▁Instruction	-3095
Rem	-3096
escaped	-3097
Slice	-3098
ration	-3099
normal	-3100
depth	-3101
AUTHORI	-3102
Network	-3103
ZATION	-3104
edge	-3105
▁Query	-3106
▁application	-3107
lemented	-3108
▁syn	-3109
ename	-3110
man	-3111
ops	-3112
ermission	-3113
iod	-3114
gent	-3115
▁Conn	-3116
▁}))	-3117
ouse	-3118
track	-3119
Integer	-3120
HE	-3121
256::	-3122
▁auth	-3123
HashMap	-3124
▁me	-3125
▁Sign	-3126
▁14	-3127
▁keys	-3128
ffff	-3129
verify	-3130
eln	-3131
▁Inter	-3132
▁parser	-3133
<[	-3134
Reference	-3135
▁sql	-3136
BO	-3137
▁Vector	-3138
NAME	-3139
amples	-3140
ators	-3141
▁after	-3142
aker	-3143
imm	-3144
▁rs	-3145
>();	-3146
present	-3147
▁delete	-3148
transform	-3149
3:	-3150
Ar	-3151
enabled	-3152
ior	-3153
vector	-3154
aded	-3155
>>)	-3156
▁batch	-3157
▁access	-3158
▁Cast	-3159
Instr	-3160
▁hello	-3161
go	-3162
▁11	-3163
Meta	-3164
accounts	-3165
))]	-3166
pv	-3167
ypair	-3168
redicate	-3169
title	-3170
KEY	-3171
▁av	-3172
▁ext	-3173
21	-3174
variables	-3175
gle	-3176
Page	-3177
scale	-3178
▁seg	-3179
assign	-3180
▁example	-3181
▁Decoder	-3182
exit	-3183
opts	-3184
trait	-3185
late	-3186
should	-3187
wasm	-3188
heap	-3189
▁import	-3190
earer	-3191
▁clo	-3192
gorithm	-3193
▁Str	-3194
cd	-3195
COL	-3196
lower	-3197
results	-3198
▁der	-3199
ou	-3200
<&'	-3201
▁sa	-3202
AUTHORIZATION	-3203
iform	-3204
cul	-3205
supported	-3206
16)	-3207
instruction	-3208
▁author	-3209
▁Input	-3210
UP	-3211
UM	-3212
EV	-3213
")	-3214
ipe	-3215
Check	-3216
()?.	-3217
imes	-3218
▁convert	-3219
▁Span	-3220
▁el	-3221
ether	-3222
▁have	-3223
▁ui	-3224
▁which	-3225
▁PathBuf	-3226
▁")),	-3227
Iter	-3228
Model	-3229
▁web	-3230
IC	-3231
▁member	-3232
rule	-3233
loop	-3234
▁program	-3235
bob	-3236
▁owner	-3237
each	-3238
▁Bearer	-3239
▁handler	-3240
float	-3241
▁warn	-3242
generate	-3243
fb	-3244
▁global	-3245
Per	-3246
prev	-3247
runtime	-3248
after	-3249
flat	-3250
binary	-3251
!()	-3252
Comp	-3253
Init	-3254
26	-3255
Fr	-3256
▁region	-3257
sError	-3258
aim	-3259
FAULT	-3260
AGE	-3261
aa	-3262
MPTY	-3263
▁1.0,	-3264
▁font	-3265
entic	-3266
eme	-3267
▁cannot	-3268
final	-3269
▁runtime	-3270
descriptor	-3271
iss	-3272
long	-3273
▁full	-3274
Ph	-3275
▁entity	-3276
▁clear	-3277
▁socket	-3278
filen	-3279
ech	-3280
▁events	-3281
Bool	-3282
logger	-3283
gn	-3284
▁when	-3285
▁will	-3286
pattern	-3287
94	-3288
collection	-3289
Settings	-3290
omic	-3291
35	-3292
▁sw	-3293
SP	-3294
▁nodes	-3295
ges	-3296
::<_	-3297
▁Storage	-3298
alias	-3299
clo	-3300
..=	-3301
▁Response	-3302
Cap	-3303
Once	-3304
mon	-3305
det	-3306
IG	-3307
▁allow	-3308
▁push	-3309
IR	-3310
▁connect	-3311
shape	-3312
Socket	-3313
100	-3314
▁pk	-3315
▁writeln	-3316
viders	-3317
SH	-3318
32).	-3319
▁cs	-3320
macro	-3321
Link	-3322
▁)?	-3323
TYPE	-3324
ceeded	-3325
▁files	-3326
must	-3327
Abi	-3328
sym	-3329
reset	-3330
Count	-3331
▁component	-3332
▁Can	-3333
grade	-3334
AX	-3335
[3	-3336
Async	-3337
Scalar	-3338
▁Ver	-3339
▁Text	-3340
ivity	-3341
generic	-3342
Variant	-3343
▁Cur	-3344
ement	-3345
configuration	-3346
Im	-3347
println	-3348
▁rel	-3349
▁layout	-3350
cpu	-3351
TT	-3352
▁draw	-3353
90	-3354
28	-3355
▁post	-3356
▁Exec	-3357
▁timestamp	-3358
loss	-3359
Runtime	-3360
dead	-3361
uation	-3362
Process	-3363
ueue	-3364
igger	-3365
ND	-3366
pd	-3367
ince	-3368
ture	-3369
properties	-3370
ategory	-3371
▁Object	-3372
mb	-3373
Change	-3374
izes	-3375
▁protocol	-3376
decl	-3377
me	-3378
expression	-3379
Attribute	-3380
ged	-3381
Br	-3382
▁No	-3383
inputs	-3384
ummy	-3385
vr	-3386
64);	-3387
▁Size	-3388
repo	-3389
.0;	-3390
▁cor	-3391
▁symbol	-3392
_5	-3393
identifier	-3394
))),	-3395
▁endpoint	-3396
light	-3397
pending	-3398
ends	-3399
unded	-3400
▁mark	-3401
swap	-3402
stats	-3403
andard	-3404
errors	-3405
dev	-3406
▁term	-3407
Args	-3408
ugh	-3409
filename	-3410
quote	-3411
aking	-3412
(((	-3413
)],	-3414
inc	-3415
indices	-3416
agnost	-3417
imary	-3418
▁exist	-3419
._	-3420
nonce	-3421
private	-3422
utdown	-3423
.0),	-3424
fined	-3425
Symbol	-3426
ene	-3427
▁Num	-3428
70	-3429
icrosoft	-3430
accessor	-3431
▁eval	-3432
▁|=	-3433
Debug	-3434
sec	-3435
▁pair	-3436
Coll	-3437
ottom	-3438
ggreg	-3439
25519	-3440
▁Service	-3441
Del	-3442
stop	-3443
coord	-3444
)?.	-3445
texture	-3446
▁Address	-3447
Validation	-3448
▁Format	-3449
interval	-3450
emit	-3451
EMPTY	-3452
elem	-3453
Component	-3454
atform	-3455
Pair	-3456
▁1),	-3457
Position	-3458
▁glib	-3459
TO	-3460
pow	-3461
trim	-3462
▁(1	-3463
engine	-3464
available	-3465
▁19	-3466
Run	-3467
stable	-3468
multi	-3469
fc	-3470
vg	-3471
utils	-3472
Zero	-3473
dst	-3474
PathBuf	-3475
nex	-3476
sErrorKind	-3477
▁skip	-3478
▁Memory	-3479
protocol	-3480
mult	-3481
policy	-3482
▁headers	-3483
InstrFlags	-3484
wrapping	-3485
flush	-3486
▁poll	-3487
amil	-3488
unescaped	-3489
▁TestInstrFlags	-3490
sql	-3491
8::	-3492
signal	-3493
aterial	-3494
▁"20	-3495
_0	-3496
sk	-3497
▁parameters	-3498
constant	-3499
ayment	-3500
PRO	-3501
▁instruction	-3502
-0	-3503
▁descriptor	-3504
▁Transaction	-3505
validate	-3506
ATA	-3507
▁Code	-3508
▁bench	-3509
arge	-3510
>().	-3511
tick	-3512
▁Py	-3513
Work	-3514
antomData	-3515
Fn	-3516
Signature	-3517
ense	-3518
apsed	-3519
ron	-3520
Unit	-3521
acc	-3522
hand	-3523
VM	-3524
Big	-3525
▁pattern	-3526
▁include	-3527
ia	-3528
SK	-3529
▁bin	-3530
By	-3531
Seq	-3532
ecess	-3533
▁hex	-3534
deps	-3535
uent	-3536
lip	-3537
Se	-3538
fold	-3539
INT	-3540
▁User	-3541
▁word	-3542
implemented	-3543
Graph	-3544
diff	-3545
.,	-3546
adding	-3547
DbWeight	-3548
Is	-3549
Batch	-3550
amic	-3551
▁codec	-3552
prec	-3553
▁vm	-3554
GL	-3555
▁search	-3556
dp	-3557
inator	-3558
▁Operation	-3559
ategy	-3560
Column	-3561
Custom	-3562
<_>	-3563
andidate	-3564
▁opts	-3565
Entity	-3566
amera	-3567
Asset	-3568
Rc	-3569
▁org	-3570
gpu	-3571
ius	-3572
IL	-3573
card	-3574
▁setup	-3575
pass	-3576
derive	-3577
▁rsp	-3578
▁database	-3579
less	-3580
1;	-3581
39	-3582
▁Could	-3583
▁DecoderOptions	-3584
paths	-3585
rpc	-3586
Other	-3587
(2,	-3588
▁display	-3589
▁Microsoft	-3590
Ret	-3591
▁proof	-3592
Layout	-3593
▁but	-3594
ertex	-3595
▁settings	-3596
trl	-3597
▁secret	-3598
cryption	-3599
ivation	-3600
yph	-3601
▁FnOnce	-3602
ufact	-3603
▁html	-3604
attrs	-3605
▁results	-3606
Rout	-3607
▁cr	-3608
Direction	-3609
apply	-3610
Open	-3611
▁execute	-3612
38	-3613
let	-3614
▁head	-3615
button	-3616
▁fetch	-3617
pixel	-3618
▁callback	-3619
Literal	-3620
domain	-3621
TreeMap	-3622
▁dist	-3623
tags	-3624
Do	-3625
▁Part	-3626
▁script	-3627
▁Comp	-3628
single	-3629
PER	-3630
price	-3631
▁sample	-3632
▁Log	-3633
Document	-3634
ere	-3635
▁verify	-3636
▁vert	-3637
tle	-3638
(());	-3639
LOCK	-3640
ware	-3641
pository	-3642
starts	-3643
Non	-3644
reference	-3645
mangle	-3646
ODY	-3647
![0	-3648
▁transform	-3649
Auth	-3650
▁wait	-3651
Serial	-3652
▁does	-3653
Identifier	-3654
Rece	-3655
1",	-3656
Bind	-3657
bucket	-3658
(..)	-3659
4_	-3660
bt	-3661
▁seq	-3662
Groups	-3663
pad	-3664
font	-3665
firm	-3666
begin	-3667
▁10,	-3668
shared	-3669
ADD	-3670
fill	-3671
▁repo	-3672
▁some	-3673
web	-3674
▁cpu	-3675
template	-3676
Location	-3677
ET	-3678
Payload	-3679
drop	-3680
segment	-3681
Js	-3682
Tensor	-3683
side	-3684
rhs	-3685
Bl	-3686
▁Output	-3687
world	-3688
definition	-3689
Span	-3690
subscription	-3691
4:	-3692
hter	-3693
Def	-3694
mov	-3695
mock	-3696
fighter	-3697
8);	-3698
boxed	-3699
dt	-3700
MO	-3701
(100	-3702
▁cell	-3703
receiver	-3704
Any	-3705
rustfmt	-3706
ircu	-3707
keypair	-3708
Template	-3709
pts	-3710
rules	-3711
transfer	-3712
nexpected	-3713
New	-3714
77	-3715
common	-3716
▁sm	-3717
Bad	-3718
ParseError	-3719
▁vector	-3720
agent	-3721
describe	-3722
ship	-3723
Endian	-3724
apper	-3725
resp	-3726
▁dat	-3727
vas	-3728
▁Pub	-3729
ideo	-3730
▁package	-3731
▁Operand	-3732
Provider	-3733
oice	-3734
package	-3735
Length	-3736
▁0),	-3737
▁"0	-3738
▁Function	-3739
▁unit	-3740
chunks	-3741
subs	-3742
Be	-3743
▁(0..	-3744
mission	-3745
day	-3746
▁providers	-3747
rypto	-3748
▁Bytes	-3749
creen	-3750
isters	-3751
ysical	-3752
ires	-3753
SO	-3754
pid	-3755
▁sum	-3756
Protocol	-3757
yped	-3758
bounds	-3759
uff	-3760
enable	-3761
AA	-3762
amily	-3763
▁manufact	-3764
▁broadcast	-3765
uch	-3766
▁remote	-3767
ART	-3768
▁two	-3769
▁scale	-3770
▁normal	-3771
▁pointer	-3772
▁eprintln	-3773
gas	-3774
Member	-3775
(&*	-3776
BODY	-3777
▁TokenStream	-3778
Io	-3779
ircuit	-3780
8>,	-3781
undle	-3782
helper	-3783
▁13	-3784
route	-3785
bb	-3786
aset	-3787
BU	-3788
IP	-3789
88	-3790
Case	-3791
▁fail	-3792
▁Pl	-3793
▁Rem	-3794
tf	-3795
stmt	-3796
▁cargo	-3797
BoxFuture	-3798
clus	-3799
Left	-3800
azon	-3801
report	-3802
▁game	-3803
Stat	-3804
syn	-3805
neg	-3806
Ac	-3807
sequence	-3808
▁ip	-3809
<'_>,	-3810
uffix	-3811
>>(&	-3812
<_>>();	-3813
provider	-3814
Schema	-3815
")]	-3816
lossy	-3817
js	-3818
factor	-3819
▁receiver	-3820
▁Describe	-3821
▁seed	-3822
bobbin	-3823
proc	-3824
▁we	-3825
▁FnMut	-3826
UNT	-3827
etty	-3828
▁using	-3829
!({	-3830
▁down	-3831
▁Valid	-3832
okie	-3833
▁GL	-3834
▁Hel	-3835
▁counter	-3836
messages	-3837
ives	-3838
29	-3839
ES	-3840
▁17	-3841
Web	-3842
INIT	-3843
="	-3844
▁manufacture	-3845
encoded	-3846
AND	-3847
identity	-3848
itness	-3849
apter	-3850
condition	-3851
tl	-3852
peat	-3853
Wasm	-3854
Empty	-3855
Send	-3856
prite	-3857
_000_000	-3858
named	-3859
▁Buffer	-3860
game	-3861
▁sync	-3862
eam	-3863
Owned	-3864
▁Not	-3865
XT	-3866
ROR	-3867
!();	-3868
▁Mut	-3869
60	-3870
scalar	-3871
Packet	-3872
Limit	-3873
▁Name	-3874
▁>,	-3875
HT	-3876
Mutex	-3877
delta	-3878
cheme	-3879
3(	-3880
(_))	-3881
atio	-3882
ResourceNotFound	-3883
crypt	-3884
iction	-3885
▁windows	-3886
Application	-3887
Offset	-3888
▁Is	-3889
ollow	-3890
UB	-3891
▁configuration	-3892
rie	-3893
Pa	-3894
alt	-3895
▁zero	-3896
ecessary	-3897
ond	-3898
ometry	-3899
sertion	-3900
▁exit	-3901
vision	-3902
▁div	-3903
RequestBuilder	-3904
▁password	-3905
▁vr	-3906
▁unimplemented	-3907
▁split	-3908
▁duration	-3909
▁Raw	-3910
istrib	-3911
cert	-3912
istration	-3913
][	-3914
inv	-3915
clu	-3916
dim	-3917
[1].	-3918
▁directory	-3919
Render	-3920
▁Header	-3921
▁remaining	-3922
▁tracing	-3923
coming	-3924
wd	-3925
▁stop	-3926
ibility	-3927
iority	-3928
vided	-3929
shake	-3930
▁Checks	-3931
cached	-3932
menu	-3933
▁Array	-3934
▁got	-3935
▁change	-3936
(1)	-3937
Dir	-3938
Inst	-3939
37	-3940
▁Construct	-3941
til	-3942
AG	-3943
Queue	-3944
plan	-3945
trins	-3946
2),	-3947
▁date	-3948
32),	-3949
marker	-3950
ignore	-3951
player	-3952
▁)))	-3953
▁git	-3954
xff	-3955
Failed	-3956
ceed	-3957
▁subscriptions	-3958
▁mult	-3959
front	-3960
▁200	-3961
54	-3962
▁#;	-3963
ifact	-3964
▁engine	-3965
lookup	-3966
▁depth	-3967
equal	-3968
▁Index	-3969
directory	-3970
amb	-3971
builders	-3972
html	-3973
Inner	-3974
▁job	-3975
SER	-3976
▁dr	-3977
4(	-3978
Right	-3979
sr	-3980
1::	-3981
▁nonce	-3982
▁Parser	-3983
▁deser	-3984
compute	-3985
Binary	-3986
Stack	-3987
▁-1	-3988
Tx	-3989
▁Mode	-3990
----	-3991
SON	-3992
complete	-3993
▁imp	-3994
endency	-3995
password	-3996
▁cluster	-3997
▁mo	-3998
▁copy	-3999
▁From	-4000
>(&'	-4001
▁rand	-4002
▁3);	-4003
▁HashSet	-4004
▁errors	-4005
All	-4006
variable	-4007
vide	-4008
vance	-4009
unsigned	-4010
Button	-4011
consum	-4012
tach	-4013
()],	-4014
just	-4015
wallet	-4016
termin	-4017
lim	-4018
unhandled	-4019
_6	-4020
Bound	-4021
▁step	-4022
Missing	-4023
▁Instant	-4024
Sync	-4025
cluster	-4026
▁custom	-4027
cii	-4028
vars	-4029
▁Js	-4030
inish	-4031
▁MAX	-4032
▁Co	-4033
prop	-4034
▁2;	-4035
27	-4036
PT	-4037
mint	-4038
oml	-4039
▁delta	-4040
Di	-4041
Peer	-4042
Equal	-4043
ging	-4044
ociate	-4045
]));	-4046
▁lhs	-4047
Byte	-4048
ece	-4049
Chain	-4050
He	-4051
widget	-4052
▁"],	-4053
onical	-4054
driver	-4055
Author	-4056
short	-4057
▁validate	-4058
▁rect	-4059
▁))?;	-4060
sect	-4061
Parameters	-4062
uuid	-4063
MS	-4064
si	-4065
▁internal	-4066
shift	-4067
▁18	-4068
▁encoded	-4069
resses	-4070
remote	-4071
Gr	-4072
setup	-4073
acy	-4074
<'_,	-4075
▁wrap	-4076
come	-4077
MASK	-4078
UID	-4079
ALL	-4080
UND	-4081
▁Stream	-4082
alf	-4083
▁multi	-4084
▁Pos	-4085
▁success	-4086
?))	-4087
ored	-4088
▁parameter	-4089
▁net	-4090
branch	-4091
▁Cow	-4092
▁apply	-4093
cons	-4094
▁more	-4095
contents	-4096
▁())	-4097
izationError	-4098
unch	-4099
document	-4100
▁maybe	-4101
imation	-4102
matrix	-4103
▁64	-4104
iphertext	-4105
▁filename	-4106
▁Sec	-4107
save	-4108
▁8,	-4109
REG	-4110
screen	-4111
▁active	-4112
▁ensure	-4113
▁Alignment	-4114
▁[0;	-4115
▁Pin	-4116
LECT	-4117
Uint	-4118
oom	-4119
cer	-4120
▁final	-4121
Core	-4122
▁Time	-4123
().0,	-4124
registry	-4125
olved	-4126
▁mnemonic	-4127
ifiers	-4128
▁diff	-4129
timer	-4130
▁long	-4131
▁ts	-4132
[..],	-4133
Post	-4134
high	-4135
Cluster	-4136
necessary	-4137
Visitor	-4138
als	-4139
egment	-4140
container	-4141
validator	-4142
Den	-4143
▁private	-4144
gc	-4145
Std	-4146
▁arguments	-4147
▁Ext	-4148
RC	-4149
OUT	-4150
exact	-4151
YMM	-4152
profile	-4153
ML	-4154
merge	-4155
bed	-4156
▁cb	-4157
PRE	-4158
sted	-4159
ITE	-4160
dispatch	-4161
▁rt	-4162
ATT	-4163
native	-4164
sq	-4165
Domain	-4166
metrics	-4167
Order	-4168
?.	-4169
coll	-4170
EL	-4171
▁mon	-4172
rott	-4173
StatusCode	-4174
lhs	-4175
▁compute	-4176
gb	-4177
lua	-4178
▁ready	-4179
Lazy	-4180
▁bucket	-4181
InternalServer	-4182
Protobuf	-4183
▁Resource	-4184
itive	-4185
▁serialized	-4186
3);	-4187
(&["	-4188
simple	-4189
axed	-4190
▁put	-4191
Scope	-4192
vertex	-4193
>>>	-4194
before	-4195
oid	-4196
▁messages	-4197
▁contents	-4198
▁supported	-4199
▁Network	-4200
▁track	-4201
▁Map	-4202
▁report	-4203
remaining	-4204
utom	-4205
alth	-4206
▁single	-4207
▁document	-4208
IO	-4209
▁Clone	-4210
sleep	-4211
▁1000	-4212
[1],	-4213
▁Per	-4214
comm	-4215
Put	-4216
▁children	-4217
▁Big	-4218
▁coll	-4219
▁you	-4220
▁API	-4221
CL	-4222
▁shared	-4223
namespace	-4224
OST	-4225
');	-4226
1(	-4227
voke	-4228
▁PhantomData	-4229
xFF	-4230
▁dw	-4231
jection	-4232
▁entries	-4233
gp	-4234
▁weight	-4235
uilt	-4236
mac	-4237
Min	-4238
hir	-4239
(|&	-4240
Endpoint	-4241
lp	-4242
Ty	-4243
▁arr	-4244
txn	-4245
Profile	-4246
Cursor	-4247
▁}}	-4248
▁domain	-4249
▁expression	-4250
▁visitor	-4251
▁player	-4252
AccountId	-4253
_:	-4254
iler	-4255
IND	-4256
parameter	-4257
Wrapper	-4258
ummary	-4259
▁box	-4260
Commit	-4261
help	-4262
columns	-4263
Lit	-4264
xis	-4265
delay	-4266
▁Foo	-4267
Collection	-4268
click	-4269
stderr	-4270
dig	-4271
▁sort	-4272
▁}));	-4273
Proof	-4274
▁unknown	-4275
▁gas	-4276
▁cre	-4277
icle	-4278
▁6,	-4279
Exceeded	-4280
▁Source	-4281
actual	-4282
▁&["	-4283
reater	-4284
Primitive	-4285
▁>(	-4286
▁ST	-4287
▁blocks	-4288
crement	-4289
▁control	-4290
▁fluent	-4291
▁Mnemonic	-4292
PublicKey	-4293
refer	-4294
backend	-4295
Details	-4296
ca	-4297
rm	-4298
ences	-4299
Space	-4300
hidden	-4301
▁vk	-4302
YTE	-4303
EST	-4304
yper	-4305
accept	-4306
▁Http	-4307
Variable	-4308
▁lines	-4309
Display	-4310
wraps	-4311
▁Start	-4312
Rect	-4313
loyment	-4314
▁_)|	-4315
▁abc	-4316
TC	-4317
▁enable	-4318
▁notify	-4319
DateTime	-4320
▁extract	-4321
Game	-4322
▁fd	-4323
Eq	-4324
(0).	-4325
▁txt	-4326
MIN	-4327
ocus	-4328
rena	-4329
idd	-4330
dates	-4331
required	-4332
orrowed	-4333
atural	-4334
▁pas	-4335
▁rounding	-4336
unnecessary	-4337
▁character	-4338
8.	-4339
eric	-4340
SA	-4341
1_1	-4342
buffers	-4343
primitive	-4344
▁!(	-4345
integer	-4346
sth	-4347
▁bail	-4348
Clo	-4349
zmm	-4350
rypt	-4351
pol	-4352
▁toml	-4353
selection	-4354
▁flag	-4355
Parser	-4356
▁consensus	-4357
▁Connection	-4358
codec	-4359
arguments	-4360
ading	-4361
EVEX	-4362
▁dev	-4363
▁form	-4364
scan	-4365
elements	-4366
istics	-4367
Too	-4368
ASE	-4369
▁deps	-4370
once	-4371
Us	-4372
66	-4373
bc	-4374
▁&[&	-4375
reply	-4376
hook	-4377
(0.0,	-4378
IF	-4379
Down	-4380
alle	-4381
▁Entry	-4382
▁ErrorKind	-4383
▁Action	-4384
FIG	-4385
Global	-4386
chedul	-4387
▁decoder	-4388
Cst	-4389
odot	-4390
ross	-4391
▁texture	-4392
Decl	-4393
▁inputs	-4394
Snapshot	-4395
Term	-4396
NodeId	-4397
DATA	-4398
velo	-4399
ediate	-4400
Fe	-4401
Drop	-4402
database	-4403
▁bindgen	-4404
ets	-4405
▁container	-4406
▁li	-4407
leaf	-4408
ither	-4409
cost	-4410
▁UI	-4411
▁Asm	-4412
▁Server	-4413
▁cmp	-4414
44	-4415
deposit	-4416
▁Expression	-4417
models	-4418
▁snapshot	-4419
partial	-4420
aft	-4421
Texture	-4422
correct	-4423
▁contains	-4424
Multi	-4425
alog	-4426
▁need	-4427
ipient	-4428
▁OperandSize	-4429
▁Lo	-4430
gest	-4431
ven	-4432
VI	-4433
▁"1	-4434
▁provided	-4435
aunch	-4436
512	-4437
nan	-4438
▁trait	-4439
3)	-4440
▁pack	-4441
▁rule	-4442
hint	-4443
digest	-4444
▁Web	-4445
16::	-4446
changes	-4447
▁rad	-4448
Gateway	-4449
ighb	-4450
▁previous	-4451
▁section	-4452
Flow	-4453
export	-4454
Man	-4455
85	-4456
▁fill	-4457
▁desc	-4458
Construction	-4459
serialized	-4460
literal	-4461
power	-4462
Region	-4463
(6	-4464
(1).	-4465
reward	-4466
stake	-4467
exist	-4468
Operator	-4469
95	-4470
1234	-4471
ascii	-4472
kv	-4473
INFO	-4474
reads	-4475
▁required	-4476
▁template	-4477
PEC	-4478
constraint	-4479
▁sk	-4480
▁close	-4481
area	-4482
asure	-4483
▁Control	-4484
▁epoch	-4485
▁─	-4486
resolve	-4487
▁sae	-4488
.1.	-4489
Import	-4490
oogle	-4491
Properties	-4492
Denied	-4493
plicate	-4494
icon	-4495
clock	-4496
tensor	-4497
Red	-4498
ORD	-4499
▁future	-4500
aff	-4501
warn	-4502
ociated	-4503
▁complet	-4504
appy	-4505
▁wallet	-4506
TIME	-4507
▁Local	-4508
▁accounts	-4509
▁attribute	-4510
▁common	-4511
Font	-4512
interface	-4513
▁xmm	-4514
sha	-4515
▁free	-4516
partition	-4517
score	-4518
ARG	-4519
zer	-4520
crypted	-4521
ended	-4522
Factory	-4523
▁typ	-4524
▁tags	-4525
LL	-4526
Permission	-4527
erk	-4528
▁BTreeMap	-4529
</	-4530
allen	-4531
agg	-4532
sess	-4533
Label	-4534
▁attributes	-4535
Row	-4536
itional	-4537
▁created	-4538
▁parsed	-4539
Mon	-4540
groups	-4541
64),	-4542
quare	-4543
Contract	-4544
▁ass	-4545
urity	-4546
ider	-4547
extract	-4548
Execution	-4549
▁high	-4550
encies	-4551
▁Ap	-4552
▁Window	-4553
▁identifier	-4554
Codec	-4555
(()),	-4556
▁segment	-4557
▁proc	-4558
uter	-4559
Vertex	-4560
plica	-4561
▁Atom	-4562
features	-4563
▁Sel	-4564
rb	-4565
NT	-4566
akes	-4567
![1,	-4568
Port	-4569
havi	-4570
percent	-4571
▁missing	-4572
AY	-4573
▁binary	-4574
▁extension	-4575
compile	-4576
coin	-4577
Sender	-4578
Statement	-4579
ficient	-4580
writes	-4581
▁Ty	-4582
Const	-4583
snake	-4584
itespace	-4585
32>,	-4586
usage	-4587
Sized	-4588
lict	-4589
▁balance	-4590
0),	-4591
▁Mock	-4592
OW	-4593
rough	-4594
▁its	-4595
▁backend	-4596
mi	-4597
roy	-4598
GET	-4599
ram	-4600
31	-4601
reserve	-4602
(__	-4603
period	-4604
xture	-4605
Relaxed	-4606
Rng	-4607
eps	-4608
lat	-4609
Return	-4610
rottling	-4611
▁before	-4612
▁On	-4613
signer	-4614
▁join	-4615
Mask	-4616
▁To	-4617
▁hand	-4618
▁cons	-4619
▁properties	-4620
▁details	-4621
▁hir	-4622
97	-4623
▁could	-4624
▁Tag	-4625
culate	-4626
eted	-4627
▁vis	-4628
▁inv	-4629
▁export	-4630
▁Run	-4631
▁sl	-4632
agnostic	-4633
▁Struct	-4634
moved	-4635
▁contain	-4636
details	-4637
▁resourceGroups	-4638
▁stdout	-4639
extra	-4640
Database	-4641
proposal	-4642
missing	-4643
anyhow	-4644
idge	-4645
▁variable	-4646
Deserializer	-4647
ATTACK	-4648
sel	-4649
ASK	-4650
▁replace	-4651
▁Sets	-4652
peers	-4653
pg	-4654
▁22	-4655
distance	-4656
ens	-4657
vote	-4658
Constant	-4659
upper	-4660
▁4);	-4661
bus	-4662
▁argument	-4663
▁wire	-4664
Pending	-4665
vtbl	-4666
▁attrs	-4667
▁recv	-4668
axis	-4669
repr	-4670
▁namespace	-4671
ucceed	-4672
threshold	-4673
98	-4674
▁Ret	-4675
connected	-4676
hi	-4677
]>	-4678
000,	-4679
▁CO	-4680
ycle	-4681
[2]	-4682
▁original	-4683
Report	-4684
▁coord	-4685
COUNT	-4686
Chunk	-4687
▁Ed	-4688
direction	-4689
sthis	-4690
▁worker	-4691
ring	-4692
Single	-4693
istribution	-4694
▁Image	-4695
initialized	-4696
(2),	-4697
Host	-4698
quid	-4699
▁DataType	-4700
Max	-4701
binding	-4702
regs	-4703
▁Hello	-4704
iddle	-4705
▁elements	-4706
cls	-4707
▁py	-4708
▁Qu	-4709
EC	-4710
very	-4711
▁parts	-4712
changed	-4713
Mark	-4714
▁&::	-4715
HttpResponse	-4716
trunc	-4717
jor	-4718
anization	-4719
▁Number	-4720
Fault	-4721
Script	-4722
odo	-4723
vc	-4724
▁guard	-4725
▁lua	-4726
defined	-4727
▁Convert	-4728
Role	-4729
▁pending	-4730
Pointer	-4731
▁Entity	-4732
▁pop	-4733
Argument	-4734
spect	-4735
▁Ident	-4736
Wire	-4737
▁Debug	-4738
)?);	-4739
▁layer	-4740
Program	-4741
▁stats	-4742
▁collection	-4743
▁shape	-4744
erkle	-4745
book	-4746
▁Init	-4747
▁spawn	-4748
__));	-4749
Serialize	-4750
▁space	-4751
keep	-4752
▁Socket	-4753
EXT	-4754
▁Line	-4755
SeqCst	-4756
ACE	-4757
oin	-4758
oth	-4759
VAL	-4760
rand	-4761
▁consum	-4762
▁Dispatch	-4763
DEFAULT	-4764
dot	-4765
rest	-4766
▁validator	-4767
Le	-4768
inux	-4769
4.	-4770
▁property	-4771
Trait	-4772
ota	-4773
▁off	-4774
bounded	-4775
▁Range	-4776
aration	-4777
dimension	-4778
▁hasher	-4779
▁integer	-4780
mar	-4781
anaged	-4782
▁arch	-4783
2",	-4784
▁transfer	-4785
WR	-4786
cles	-4787
▁matrix	-4788
▁Non	-4789
alys	-4790
▁rows	-4791
UI	-4792
▁whether	-4793
ROM	-4794
CF	-4795
aly	-4796
WSTR	-4797
▁ok	-4798
alysis	-4799
STAT	-4800
▁conf	-4801
▁7,	-4802
▁Expected	-4803
BYTE	-4804
big	-4805
factory	-4806
role	-4807
pipeline	-4808
ambda	-4809
▁Unable	-4810
lit	-4811
authority	-4812
Dat	-4813
org	-4814
clusive	-4815
ismatch	-4816
Tuple	-4817
▁bounds	-4818
show	-4819
▁sequence	-4820
iate	-4821
▁registry	-4822
two	-4823
▁~	-4824
vers	-4825
16_	-4826
▁reset	-4827
▁iss	-4828
▁running	-4829
oriz	-4830
5.	-4831
▁prop	-4832
Word	-4833
Root	-4834
_1.	-4835
GTH	-4836
deserializer	-4837
FOR	-4838
force	-4839
pped	-4840
cheduler	-4841
▁My	-4842
▁Frame	-4843
Ip	-4844
ithub	-4845
entities	-4846
fixed	-4847
cf	-4848
▁rest	-4849
umul	-4850
▁pe	-4851
▁Build	-4852
Load	-4853
▁show	-4854
▁available	-4855
▁points	-4856
rift	-4857
ra	-4858
▁Sha	-4859
▁Any	-4860
otes	-4861
ialog	-4862
PUT	-4863
Many	-4864
▁Graph	-4865
▁End	-4866
cm	-4867
notify	-4868
IS	-4869
▁timer	-4870
listener	-4871
16(	-4872
▁edge	-4873
pb	-4874
▁termin	-4875
▁pass	-4876
<&[	-4877
apped	-4878
Generic	-4879
words	-4880
▁Device	-4881
real	-4882
shader	-4883
TypeId	-4884
▁iterator	-4885
many	-4886
"]	-4887
BOOL	-4888
▁&(	-4889
48	-4890
▁Gets	-4891
Exp	-4892
(3,	-4893
win	-4894
▁Act	-4895
Extension	-4896
▁JSON	-4897
▁1]	-4898
▁Channel	-4899
▁elem	-4900
fx	-4901
endencies	-4902
ACT	-4903
▁CON	-4904
▁00	-4905
▁]);	-4906
▁constant	-4907
tail	-4908
▁macro	-4909
ilities	-4910
elapsed	-4911
▁emit	-4912
!(_	-4913
cluded	-4914
▁Scalar	-4915
▁commands	-4916
proxy	-4917
▁Element	-4918
Backend	-4919
ween	-4920
▁Bits	-4921
mapping	-4922
▁go	-4923
TypeMut	-4924
appro	-4925
Xml	-4926
▁Flow	-4927
▁metrics	-4928
▁}).	-4929
alpha	-4930
selected	-4931
Search	-4932
roke	-4933
▁<&	-4934
ighter	-4935
01)	-4936
▁preview	-4937
txt	-4938
acon	-4939
ful	-4940
▁()>	-4941
▁Json	-4942
):	-4943
iles	-4944
poly	-4945
ampol	-4946
32>(	-4947
▁txn	-4948
states	-4949
exer	-4950
[0..	-4951
Container	-4952
PD	-4953
blob	-4954
progress	-4955
Package	-4956
runner	-4957
Boolean	-4958
gtk	-4959
▁extra	-4960
▁alpha	-4961
CS	-4962
Over	-4963
▁"))?;	-4964
frames	-4965
▁am	-4966
schedule	-4967
▁Buf	-4968
support	-4969
▁stmt	-4970
▁pixel	-4971
BIT	-4972
▁255	-4973
▁overload	-4974
cos	-4975
RequestException	-4976
Bar	-4977
since	-4978
FILE	-4979
holder	-4980
PAR	-4981
▁reply	-4982
Names	-4983
release	-4984
ADER	-4985
Matrix	-4986
include	-4987
pat	-4988
▁under	-4989
(0.	-4990
ampoline	-4991
▁godot	-4992
IM	-4993
▁0.5	-4994
▁enabled	-4995
Can	-4996
08	-4997
sible	-4998
▁fi	-4999
'),	-5000
▁collect	-5001
▁Rece	-5002
Secret	-5003
igration	-5004
mesh	-5005
4::	-5006
ipt	-5007
erride	-5008
▁scan	-5009
ube	-5010
Certificate	-5011
effect	-5012
▁Partial	-5013
▁did	-5014
argin	-5015
ATH	-5016
wLock	-5017
▁LO	-5018
worker	-5019
▁**	-5020
},	-5021
▁button	-5022
▁Bench	-5023
Segment	-5024
▁svg	-5025
operand	-5026
!(*	-5027
sol	-5028
Alloc	-5029
▁unexpected	-5030
CR	-5031
▁resolve	-5032
omial	-5033
deleg	-5034
▁2.0	-5035
Balance	-5036
edger	-5037
site	-5038
▁ec	-5039
entication	-5040
▁'\	-5041
URE	-5042
LISION	-5043
256_	-5044
my	-5045
65	-5046
UInt	-5047
▁1024	-5048
▁clock	-5049
icense	-5050
GB	-5051
▁Doc	-5052
covery	-5053
semb	-5054
▁Pre	-5055
oard	-5056
128,	-5057
▁decl	-5058
::<_>(	-5059
▁profile	-5060
Conf	-5061
▁Peer	-5062
gpointer	-5063
▁gtk	-5064
ze	-5065
LENGTH	-5066
Normal	-5067
)?)	-5068
COLLISION	-5069
share	-5070
▁google	-5071
dw	-5072
comment	-5073
RefCell	-5074
▁signal	-5075
AccessDenied	-5076
▁Std	-5077
tempt	-5078
ually	-5079
▁_>(	-5080
equence	-5081
Py	-5082
resources	-5083
NS	-5084
bad	-5085
wind	-5086
128::	-5087
TED	-5088
CESS	-5089
center	-5090
▁Origin	-5091
actions	-5092
Layer	-5093
parator	-5094
Slot	-5095
TTP	-5096
▁ms	-5097
▁support	-5098
uate	-5099
▁rot	-5100
drain	-5101
▁Open	-5102
ble	-5103
uninit	-5104
aive	-5105
symbols	-5106
▁Se	-5107
▁Version	-5108
▁listener	-5109
8>)	-5110
fut	-5111
urned	-5112
dc	-5113
did	-5114
ories	-5115
etween	-5116
quire	-5117
▁already	-5118
▁bad	-5119
genesis	-5120
history	-5121
ERROR	-5122
▁ir	-5123
▁Filter	-5124
▁Symbol	-5125
▁driver	-5126
▁accept	-5127
cessed	-5128
ONE	-5129
(#	-5130
outputs	-5131
attach	-5132
ERO	-5133
▁pid	-5134
foo	-5135
generics	-5136
▁Module	-5137
▁40	-5138
▁SELECT	-5139
▁encoding	-5140
READ	-5141
▁ns	-5142
Stmt	-5143
▁agent	-5144
construct	-5145
Pipeline	-5146
requests	-5147
Sc	-5148
docs	-5149
▁Env	-5150
▁stat	-5151
▁take	-5152
rgb	-5153
▁reser	-5154
▁<[	-5155
Callback	-5156
Pattern	-5157
commands	-5158
▁reason	-5159
2;	-5160
END	-5161
Plan	-5162
ORT	-5163
channels	-5164
▁cli	-5165
▁comm	-5166
ves	-5167
▁fee	-5168
>())	-5169
arp	-5170
parsed	-5171
Attributes	-5172
▁Cell	-5173
▁2.	-5174
[0];	-5175
Engine	-5176
▁Rect	-5177
rtifact	-5178
▁ids	-5179
▁ll	-5180
▁EX	-5181
`,	-5182
▁destination	-5183
alances	-5184
▁xml	-5185
JsValue	-5186
Clone	-5187
05	-5188
IX	-5189
▁comment	-5190
CP	-5191
LAG	-5192
aginator	-5193
Success	-5194
RetType	-5195
▁"2	-5196
lation	-5197
▁follow	-5198
▁Di	-5199
clause	-5200
Media	-5201
▁sym	-5202
▁interval	-5203
Stop	-5204
▁_))	-5205
▁parsing	-5206
Sw	-5207
arc	-5208
▁___	-5209
▁direction	-5210
▁low	-5211
(&'	-5212
sim	-5213
istic	-5214
8),	-5215
tile	-5216
manifest	-5217
-1	-5218
basic	-5219
rok	-5220
▁Position	-5221
▁ma	-5222
▁release	-5223
▁save	-5224
▁Root	-5225
statement	-5226
grid	-5227
▁passed	-5228
Thread	-5229
Types	-5230
▁AsmRegister	-5231
▁indices	-5232
One	-5233
▁runner	-5234
without	-5235
(("	-5236
▁(&(&	-5237
▁).	-5238
best	-5239
▁Column	-5240
tool	-5241
unique	-5242
▁condition	-5243
▁2)	-5244
▁sim	-5245
▁IntoIterator	-5246
▁neg	-5247
ULL	-5248
allenge	-5249
▁tick	-5250
Flag	-5251
▁compile	-5252
▁Try	-5253
▁Table	-5254
[4	-5255
▁cert	-5256
prot	-5257
▁todo	-5258
Transfer	-5259
▁|_|	-5260
Det	-5261
thon	-5262
ead	-5263
tab	-5264
WasmAbi	-5265
trampoline	-5266
▁Handle	-5267
_7	-5268
▁uninit	-5269
Changed	-5270
surface	-5271
note	-5272
sink	-5273
reserved	-5274
vk	-5275
Private	-5276
ampler	-5277
9.	-5278
loaded	-5279
Project	-5280
Virtual	-5281
tests	-5282
downcast	-5283
heet	-5284
▁real	-5285
inuation	-5286
RED	-5287
Child	-5288
▁MASK	-5289
Forward	-5290
destination	-5291
grad	-5292
▁kernel	-5293
4);	-5294
Track	-5295
Os	-5296
▁Session	-5297
▁inline	-5298
hashes	-5299
▁Visitor	-5300
▁Uint	-5301
lif	-5302
gnore	-5303
MENT	-5304
calls	-5305
repeat	-5306
TEXT	-5307
Wh	-5308
abilities	-5309
▁received	-5310
▁FROM	-5311
Opt	-5312
JsonObject	-5313
orizont	-5314
chor	-5315
segments	-5316
▁Url	-5317
▁branch	-5318
trinsic	-5319
cratch	-5320
ggregate	-5321
▁Red	-5322
_::	-5323
props	-5324
▁Content	-5325
bitfield	-5326
vault	-5327
escape	-5328
![0;	-5329
Static	-5330
Connect	-5331
▁Cursor	-5332
▁CH	-5333
permission	-5334
selector	-5335
plied	-5336
_8	-5337
SIG	-5338
▁route	-5339
1).	-5340
priority	-5341
▁encoder	-5342
cargo	-5343
modules	-5344
▁&=	-5345
256,	-5346
eff	-5347
_.	-5348
Merge	-5349
▁Game	-5350
registers	-5351
▁Back	-5352
threads	-5353
▁Runtime	-5354
Top	-5355
▁Del	-5356
▁Work	-5357
FE	-5358
▁POST	-5359
sock	-5360
▁Primitive	-5361
ips	-5362
▁1).	-5363
fragment	-5364
Transform	-5365
8>>	-5366
bank	-5367
[..]);	-5368
iase	-5369
▁DB	-5370
▁place	-5371
forward	-5372
ulation	-5373
▁rpc	-5374
▁wr	-5375
▁Ar	-5376
6_	-5377
clean	-5378
▁Reference	-5379
ports	-5380
▁Float	-5381
000000	-5382
Route	-5383
ictionary	-5384
▁he	-5385
▁than	-5386
▁Byte	-5387
▁Copy	-5388
Widget	-5389
JsonObjectWriter	-5390
▁Location	-5391
Has	-5392
7.	-5393
ette	-5394
Func	-5395
components	-5396
Full	-5397
curity	-5398
ocation	-5399
▁Spec	-5400
syntax	-5401
▁Internal	-5402
()];	-5403
Dispatch	-5404
▁})),	-5405
done	-5406
7.0	-5407
Sql	-5408
requency	-5409
▁lower	-5410
mouse	-5411
▁det	-5412
Common	-5413
▁Date	-5414
▁js	-5415
TestCase	-5416
(1));	-5417
zone	-5418
▁TEST	-5419
_1_	-5420
1111	-5421
receive	-5422
precated	-5423
DataType	-5424
seek	-5425
▁information	-5426
room	-5427
▁policy	-5428
oss	-5429
istent	-5430
▁}.	-5431
watch	-5432
SPEC	-5433
Guard	-5434
unary	-5435
▁screen	-5436
volume	-5437
controller	-5438
ociation	-5439
pm	-5440
orizontal	-5441
▁(0,	-5442
outer	-5443
Cow	-5444
▁ge	-5445
Edge	-5446
Sig	-5447
▁Gen	-5448
▁definition	-5449
▁Task	-5450
ALID	-5451
Gen	-5452
pers	-5453
Borrowed	-5454
transactions	-5455
zz	-5456
Remove	-5457
▁partition	-5458
Encoding	-5459
▁play	-5460
chron	-5461
Standard	-5462
adow	-5463
TEST	-5464
Ali	-5465
cookie	-5466
('\	-5467
▁baz	-5468
▁mesh	-5469
oma	-5470
Shared	-5471
Signed	-5472
45	-5473
2<	-5474
CA	-5475
▁pin	-5476
▁native	-5477
aintext	-5478
▁subs	-5479
Throttling	-5480
((*	-5481
▁without	-5482
▁Api	-5483
▁paths	-5484
caling	-5485
au	-5486
▁</	-5487
▁255,	-5488
advance	-5489
▁tail	-5490
opcode	-5491
criber	-5492
QUE	-5493
▁Fr	-5494
>()?;	-5495
authorized	-5496
product	-5497
Audio	-5498
▁Target	-5499
1(),	-5500
double	-5501
CTION	-5502
▁If	-5503
▁Formatter	-5504
ASH	-5505
currency	-5506
auto	-5507
▁SH	-5508
▁Binary	-5509
relative	-5510
inder	-5511
Constraint	-5512
40::	-5513
▁signed	-5514
▁ocv	-5515
▁ocvrs	-5516
▁executor	-5517
claim	-5518
shard	-5519
unct	-5520
loor	-5521
Decode	-5522
mall	-5523
▁xs	-5524
pf	-5525
▁uuid	-5526
▁shift	-5527
optional	-5528
▁Dat	-5529
▁users	-5530
▁delay	-5531
sive	-5532
Exit	-5533
▁img	-5534
tls	-5535
▁23	-5536
Notification	-5537
Shape	-5538
arry	-5539
Try	-5540
primary	-5541
prom	-5542
▁done	-5543
▁resources	-5544
reason	-5545
▁heap	-5546
▁Render	-5547
respon	-5548
uggest	-5549
Listener	-5550
Gl	-5551
▁logger	-5552
▁username	-5553
)]);	-5554
_2_	-5555
▁Do	-5556
xf	-5557
(0));	-5558
tbl	-5559
▁Mod	-5560
Mult	-5561
lang	-5562
▁Term	-5563
Next	-5564
46	-5565
▁unique	-5566
▁MemoryOperand	-5567
Reason	-5568
Move	-5569
ynomial	-5570
indent	-5571
▁Layout	-5572
atest	-5573
▁direct	-5574
▁existing	-5575
LS	-5576
▁float	-5577
▁Var	-5578
▁pb	-5579
12,	-5580
▁jo	-5581
▁exists	-5582
Reser	-5583
86_	-5584
stdin	-5585
MapAccess	-5586
ratio	-5587
works	-5588
coded	-5589
64>,	-5590
caled	-5591
umb	-5592
ZERO	-5593
▁finish	-5594
▁cast	-5595
▁Multi	-5596
Attr	-5597
kernel	-5598
operator	-5599
ational	-5600
unix	-5601
▁changed	-5602
uman	-5603
thrift	-5604
▁30	-5605
Description	-5606
▁win	-5607
()))?;	-5608
vals	-5609
▁Process	-5610
radius	-5611
slots	-5612
ison	-5613
gres	-5614
72	-5615
summ	-5616
ServiceError	-5617
PS	-5618
previous	-5619
Hel	-5620
▁manifest	-5621
iece	-5622
records	-5623
ai	-5624
resize	-5625
press	-5626
wise	-5627
▁sha	-5628
▁Wh	-5629
01,	-5630
cid	-5631
▁interface	-5632
▁operations	-5633
▁Atomic	-5634
lazy	-5635
(2);	-5636
ITY	-5637
▁provider	-5638
Unexpected	-5639
IDTH	-5640
so	-5641
▁simple	-5642
Credential	-5643
])?;	-5644
▁signer	-5645
tim	-5646
pretty	-5647
idi	-5648
going	-5649
alette	-5650
maybe	-5651
pn	-5652
unpack	-5653
10,	-5654
already	-5655
Proxy	-5656
Native	-5657
Use	-5658
usted	-5659
_1,	-5660
32>)	-5661
▁Arguments	-5662
edges	-5663
▁been	-5664
ctl	-5665
▁plan	-5666
machine	-5667
2).	-5668
sizes	-5669
▁succeed	-5670
GUID	-5671
character	-5672
Initial	-5673
collections	-5674
STATUS	-5675
▁Display	-5676
execution	-5677
rees	-5678
▁Ass	-5679
Close	-5680
Fixed	-5681
)>,	-5682
Condition	-5683
Usage	-5684
Cmd	-5685
▁tile	-5686
stage	-5687
folder	-5688
Dest	-5689
MPLE	-5690
xmmm	-5691
external	-5692
▁Async	-5693
INTER	-5694
▁short	-5695
)];	-5696
allel	-5697
ulk	-5698
▁)));	-5699
▁capacity	-5700
▁lim	-5701
loader	-5702
▁vertex	-5703
STRING	-5704
79	-5705
until	-5706
Ctx	-5707
▁tuple	-5708
asses	-5709
instrument	-5710
::<::	-5711
caller	-5712
Current	-5713
▁optional	-5714
GR	-5715
▁wgpu	-5716
▁same	-5717
▁Protocol	-5718
▁1..	-5719
▁align	-5720
clsinst	-5721
west	-5722
complet	-5723
▁Asset	-5724
▁Cannot	-5725
▁rc	-5726
▁columns	-5727
Serializer	-5728
▁FlowElement	-5729
▁{},	-5730
Reply	-5731
>>();	-5732
application	-5733
▁Cal	-5734
▁DEFAULT	-5735
ager	-5736
▁minimal	-5737
').	-5738
▁alt	-5739
herit	-5740
ynamic	-5741
dl	-5742
nondet	-5743
pages	-5744
▁swap	-5745
FR	-5746
shutdown	-5747
▁100,	-5748
▁New	-5749
ava	-5750
PCWSTR	-5751
redu	-5752
>("	-5753
Video	-5754
ions	-5755
samples	-5756
▁StatusCode	-5757
cols	-5758
cnt	-5759
pred	-5760
▁WH	-5761
▁begin	-5762
64).	-5763
▁mov	-5764
▁proposal	-5765
▁NodeId	-5766
andidates	-5767
Ipv	-5768
▁role	-5769
gon	-5770
SliceExt	-5771
times	-5772
Progress	-5773
▁operator	-5774
MD	-5775
uck	-5776
▁Constructs	-5777
▁shader	-5778
rem	-5779
▁identity	-5780
InParam	-5781
pet	-5782
ecode	-5783
vol	-5784
5678	-5785
58	-5786
boundary	-5787
▁Rel	-5788
▁rustc	-5789
▁256	-5790
tt	-5791
Indirect	-5792
Less	-5793
Timestamp	-5794
▁"2021	-5795
Chat	-5796
rd	-5797
▁widget	-5798
psc	-5799
plugin	-5800
▁best	-5801
deg	-5802
whitespace	-5803
//	-5804
42	-5805
▁append	-5806
Summary	-5807
▁genesis	-5808
WireType	-5809
failure	-5810
▁&*(	-5811
▁Msg	-5812
incip	-5813
▁Tem	-5814
Decoder	-5815
ABLED	-5816
locity	-5817
▁Variable	-5818
▁flat	-5819
▁9,	-5820
TS	-5821
bitrary	-5822
▁2),	-5823
crypto	-5824
pan	-5825
original	-5826
git	-5827
executor	-5828
▁Method	-5829
por	-5830
▁den	-5831
▁outputs	-5832
-01");	-5833
7.0.0.	-5834
suffix	-5835
_0000	-5836
▁sink	-5837
Environment	-5838
▁ParseError	-5839
(_:	-5840
▁who	-5841
▁fun	-5842
▁changes	-5843
sup	-5844
Named	-5845
amazon	-5846
▁environment	-5847
inate	-5848
tures	-5849
FFER	-5850
tasks	-5851
summary	-5852
▁admin	-5853
03	-5854
Simple	-5855
aggreg	-5856
▁ww	-5857
▁then	-5858
▁Future	-5859
▁each	-5860
▁World	-5861
etic	-5862
IST	-5863
▁scalar	-5864
ObjectKey	-5865
MIT	-5866
plicit	-5867
uring	-5868
<&(	-5869
SD	-5870
predicate	-5871
visitor	-5872
consensus	-5873
complex	-5874
▁Attrib	-5875
username	-5876
boot	-5877
▁Direction	-5878
▁updated	-5879
▁["	-5880
▁Cr	-5881
▁Matrix	-5882
ars	-5883
Loop	-5884
▁")?	-5885
▁ws	-5886
▁Base	-5887
▁Record	-5888
ctrl	-5889
▁selected	-5890
BLOCK	-5891
▁Public	-5892
▁Signal	-5893
nth	-5894
CC	-5895
RL	-5896
▁selection	-5897
members	-5898
▁])	-5899
▁alice	-5900
▁subject	-5901
truncate	-5902
fun	-5903
▁generated	-5904
▁regex	-5905
(&"	-5906
▁SocketAddr	-5907
edit	-5908
uiltin	-5909
▁help	-5910
family	-5911
Statics	-5912
Syntax	-5913
FLAG	-5914
▁prom	-5915
topic	-5916
qclsinst	-5917
icode	-5918
▁Signature	-5919
Tcp	-5920
▁email	-5921
generator	-5922
scroll	-5923
ocks	-5924
▁usage	-5925
▁icon	-5926
canonical	-5927
havior	-5928
ents	-5929
0));	-5930
Auto	-5931
copied	-5932
▁lookup	-5933
";	-5934
EndObject	-5935
eries	-5936
▁assign	-5937
BSTR	-5938
dom	-5939
Desc	-5940
▁partial	-5941
Timeout	-5942
▁sn	-5943
▁workspace	-5944
▁Ad	-5945
Step	-5946
bot	-5947
sib	-5948
▁Out	-5949
▁Link	-5950
▁blob	-5951
regex	-5952
CRE	-5953
Der	-5954
▁associated	-5955
▁&[],	-5956
Neg	-5957
▁basic	-5958
▁unset	-5959
<()	-5960
CODE	-5961
QL	-5962
▁Tcp	-5963
▁patch	-5964
(|(_,	-5965
▁Rule	-5966
Binding	-5967
fork	-5968
aves	-5969
▁EN	-5970
▁&<	-5971
VALID	-5972
▁rules	-5973
walk	-5974
audio	-5975
▁Sty	-5976
("1	-5977
▁IResult	-5978
▁"].	-5979
▁watch	-5980
▁tcx	-5981
Security	-5982
▁sent	-5983
atible	-5984
5);	-5985
padding	-5986
▁manager	-5987
▁Coll	-5988
lt	-5989
ZMM	-5990
Draw	-5991
Copy	-5992
123	-5993
IntSliceExt	-5994
DS	-5995
FT	-5996
utable	-5997
ailing	-5998
▁mat	-5999
wall	-6000
offsets	-6001
▁Generic	-6002
ones	-6003
OM	-6004
ev	-6005
▁Unexpected	-6006
16()	-6007
Atomic	-6008
bottom	-6009
▁pc	-6010
▁utils	-6011
fbthrift	-6012
visible	-6013
uite	-6014
imiter	-6015
▁curr	-6016
▁Packet	-6017
()]	-6018
▁topic	-6019
lowercase	-6020
notation	-6021
Dimension	-6022
xc	-6023
▁Signed	-6024
▁nested	-6025
▁mpsc	-6026
bose	-6027
ely	-6028
upgrade	-6029
atomic	-6030
HashSet	-6031
labels	-6032
8(&	-6033
[1..	-6034
Character	-6035
ides	-6036
modify	-6037
PIO	-6038
▁auto	-6039
TA	-6040
agic	-6041
tleEndian	-6042
▁force	-6043
.1,	-6044
▁audio	-6045
wrapper	-6046
TokenStream	-6047
allocate	-6048
▁www	-6049
gt	-6050
▁Match	-6051
▁effect	-6052
LimitExceeded	-6053
isize	-6054
PR	-6055
Player	-6056
▁8)	-6057
BYTES	-6058
Registration	-6059
FER	-6060
▁Page	-6061
Place	-6062
tonic	-6063
▁es	-6064
▁clean	-6065
ProtobufType	-6066
▁pipeline	-6067
CI	-6068
ErrorCode	-6069
atom	-6070
▁day	-6071
▁Level	-6072
SdkBody	-6073
same	-6074
isto	-6075
vs	-6076
▁Integer	-6077
▁PRO	-6078
▁Chain	-6079
ircle	-6080
▁digest	-6081
▁bindings	-6082
compressed	-6083
06	-6084
Rate	-6085
▁Am	-6086
▁black	-6087
ookup	-6088
Section	-6089
▁fragment	-6090
▁dim	-6091
ifications	-6092
velope	-6093
associate	-6094
▁called	-6095
tri	-6096
Signal	-6097
▁poly	-6098
aging	-6099
▁progress	-6100
▁Serialize	-6101
.0));	-6102
("0	-6103
ORY	-6104
img	-6105
▁Tree	-6106
Uuid	-6107
:00	-6108
addresses	-6109
iterion	-6110
Controller	-6111
strap	-6112
lin	-6113
finalize	-6114
ifies	-6115
▁about	-6116
▁Deserialize	-6117
Effect	-6118
certificate	-6119
strip	-6120
Receiver	-6121
Shader	-6122
need	-6123
▁Im	-6124
speed	-6125
▁constraint	-6126
alice	-6127
swer	-6128
▁vari	-6129
Mapping	-6130
confirm	-6131
▁42	-6132
VICE	-6133
▁grid	-6134
Algorithm	-6135
compare	-6136
▁hi	-6137
blem	-6138
Stats	-6139
▁mul	-6140
abb	-6141
DR	-6142
latest	-6143
cancel	-6144
▁happy	-6145
(7	-6146
install	-6147
ADDR	-6148
submit	-6149
flatten	-6150
Ge	-6151
▁dt	-6152
xs	-6153
://	-6154
▁Access	-6155
vertices	-6156
)?),	-6157
▁objects	-6158
![(	-6159
allowed	-6160
consume	-6161
WIDTH	-6162
libc	-6163
▁dig	-6164
incipal	-6165
Remote	-6166
transport	-6167
())?	-6168
▁expecting	-6169
Connector	-6170
spl	-6171
EP	-6172
ILE	-6173
▁Transform	-6174
Export	-6175
Registry	-6176
break	-6177
allback	-6178
updated	-6179
imate	-6180
Deserialize	-6181
uniform	-6182
▁Wasm	-6183
▁score	-6184
▁1];	-6185
admin	-6186
Hasher	-6187
▁note	-6188
▁Em	-6189
email	-6190
▁tim	-6191
RESS	-6192
FORM	-6193
Dependency	-6194
ety	-6195
▁bottom	-6196
bi	-6197
▁functions	-6198
▁Balance	-6199
half	-6200
Events	-6201
▁room	-6202
Currency	-6203
rier	-6204
peated	-6205
ANCE	-6206
versions	-6207
argument	-6208
▁Variant	-6209
▁install	-6210
ho	-6211
"));	-6212
metric	-6213
▁small	-6214
▁Tx	-6215
OF	-6216
▁'_	-6217
IntoWasmAbi	-6218
73	-6219
tables	-6220
Double	-6221
▁ops	-6222
▁"]);	-6223
▁so	-6224
▁onclick	-6225
[2],	-6226
>>()	-6227
LAY	-6228
prepare	-6229
multiple	-6230
▁alias	-6231
▁returned	-6232
▁dp	-6233
▁Global	-6234
16;	-6235
▁Syntax	-6236
▁tool	-6237
parison	-6238
na	-6239
▁walk	-6240
ana	-6241
Qword	-6242
▁Remove	-6243
ANDLE	-6244
Req	-6245
▁price	-6246
▁ev	-6247
blocking	-6248
Values	-6249
▁Enable	-6250
tip	-6251
mutable	-6252
istogram	-6253
Greater	-6254
Selection	-6255
cred	-6256
LazyV	-6257
89	-6258
Pubkey	-6259
fp	-6260
▁leaf	-6261
▁big	-6262
![]	-6263
Icon	-6264
▁since	-6265
ike	-6266
peekable	-6267
Machine	-6268
ured	-6269
▁padding	-6270
▁CString	-6271
igation	-6272
▁shard	-6273
modified	-6274
when	-6275
'\	-6276
ARGO	-6277
language	-6278
sqrt	-6279
▁HTTP	-6280
▁ignore	-6281
InvalidParameter	-6282
0_0);	-6283
oted	-6284
eekable	-6285
▁tcp	-6286
External	-6287
▁Program	-6288
NER	-6289
ledger	-6290
▁For	-6291
locked	-6292
Generator	-6293
Pack	-6294
▁center	-6295
hing	-6296
acle	-6297
celer	-6298
▁light	-6299
uted	-6300
▁pad	-6301
▁interrupt	-6302
relation	-6303
2));	-6304
▁represent	-6305
[(	-6306
▁eth	-6307
3),	-6308
uting	-6309
rv	-6310
▁Bl	-6311
Ins	-6312
ranges	-6313
▁ct	-6314
▁Bencher	-6315
Prefix	-6316
▁_|	-6317
▁(1,	-6318
Decimal	-6319
▁Br	-6320
▁mean	-6321
itError	-6322
retry	-6323
▁tw	-6324
▁red	-6325
refs	-6326
assertion	-6327
▁Rust	-6328
encoder	-6329
Basic	-6330
▁Store	-6331
gateway	-6332
▁dry	-6333
Vtbl	-6334
ytecode	-6335
vation	-6336
Pri	-6337
verage	-6338
Already	-6339
4).	-6340
border	-6341
hw	-6342
07	-6343
priv	-6344
▁chars	-6345
▁ER	-6346
Menu	-6347
LOW	-6348
▁vote	-6349
▁transport	-6350
32.	-6351
1".	-6352
Bin	-6353
▁cc	-6354
reverse	-6355
rieve	-6356
▁-5	-6357
candidate	-6358
▁Core	-6359
▁mint	-6360
interrupt	-6361
▁Initial	-6362
▁machine	-6363
▁proxy	-6364
▁2.0,	-6365
toml	-6366
beta	-6367
▁uint	-6368
globals	-6369
ird	-6370
tachment	-6371
5_	-6372
▁Database	-6373
▁Group	-6374
ducer	-6375
trip	-6376
▁differ	-6377
pkg	-6378
--------	-6379
▁schedule	-6380
Wait	-6381
Strategy	-6382
▁yet	-6383
▁CARGO	-6384
users	-6385
▁want	-6386
▁nd	-6387
▁pt	-6388
(3),	-6389
Dword	-6390
QU	-6391
Subscription	-6392
Fd	-6393
Active	-6394
dummy	-6395
(&(	-6396
concat	-6397
▁targets	-6398
87	-6399
▁gst	-6400
Sequence	-6401
Tags	-6402
ifetime	-6403
validation	-6404
ateral	-6405
32::<	-6406
Encoder	-6407
dict	-6408
Mouse	-6409
6.	-6410
Rpc	-6411
▁members	-6412
Instant	-6413
▁Exp	-6414
lude	-6415
ters	-6416
▁deserializer	-6417
year	-6418
▁Stack	-6419
ipv	-6420
sets	-6421
▁failure	-6422
▁distance	-6423
▁pretty	-6424
slash	-6425
3).	-6426
▁upper	-6427
ks	-6428
amazonaws	-6429
[3]	-6430
MODE	-6431
1000	-6432
Edit	-6433
ossip	-6434
recur	-6435
ention	-6436
▁lit	-6437
Av	-6438
[..]	-6439
▁Bound	-6440
master	-6441
xb	-6442
Sink	-6443
RwLock	-6444
Contact	-6445
NK	-6446
Coord	-6447
▁5);	-6448
▁mutable	-6449
objects	-6450
publish	-6451
feed	-6452
gba	-6453
digit	-6454
▁rate	-6455
▁execution	-6456
Matches	-6457
▁tls	-6458
▁md	-6459
mat	-6460
(16,	-6461
▁cloud	-6462
▁LL	-6463
written	-6464
decoder	-6465
0_0	-6466
tcp	-6467
OKEN	-6468
overflow	-6469
curr	-6470
▁localhost	-6471
unce	-6472
▁equal	-6473
ik	-6474
Unavailable	-6475
crete	-6476
▁unwrap	-6477
▁derive	-6478
64.	-6479
itude	-6480
Directory	-6481
Mock	-6482
decimal	-6483
▁LI	-6484
▁sleep	-6485
()[	-6486
▁Component	-6487
▁Contract	-6488
Pin	-6489
()?);	-6490
▁too	-6491
unstable	-6492
Uniform	-6493
▁controller	-6494
RD	-6495
(2)	-6496
who	-6497
xa	-6498
▁literal	-6499
faces	-6500
IGHT	-6501
created	-6502
ALICE	-6503
Typed	-6504
Ne	-6505
echo	-6506
▁(_	-6507
▁github	-6508
▁Unit	-6509
peed	-6510
▁flush	-6511
TooMany	-6512
activation	-6513
agnostics	-6514
built	-6515
Sl	-6516
CHE	-6517
PATH	-6518
pressed	-6519
▁closure	-6520
3<	-6521
IID	-6522
▁allowed	-6523
▁Validation	-6524
▁util	-6525
xd	-6526
Termin	-6527
Stage	-6528
functions	-6529
OperandSize	-6530
plain	-6531
▁KEY	-6532
MOD	-6533
egration	-6534
▁Unknown	-6535
DEX	-6536
▁dummy	-6537
>|	-6538
▁0).	-6539
CLE	-6540
▁external	-6541
ECT	-6542
gain	-6543
![1	-6544
inates	-6545
testation	-6546
bundle	-6547
Select	-6548
sorted	-6549
▁Style	-6550
bg	-6551
Only	-6552
eque	-6553
Metric	-6554
▁none	-6555
notification	-6556
memcmp	-6557
▁21	-6558
WS	-6559
logs	-6560
Eval	-6561
Long	-6562
Scan	-6563
64))	-6564
inger	-6565
▁bank	-6566
▁latest	-6567
▁Load	-6568
InvalidInput	-6569
▁Font	-6570
Counter	-6571
▁Cap	-6572
MAP	-6573
Play	-6574
▁att	-6575
clip	-6576
▁there	-6577
Conflict	-6578
bindings	-6579
▁Attribute	-6580
![0,	-6581
the	-6582
▁deref	-6583
::__	-6584
▁Io	-6585
▁iid	-6586
Parent	-6587
▁Regex	-6588
9_	-6589
market	-6590
▁assets	-6591
WORD	-6592
▁")));	-6593
::_	-6594
posite	-6595
(8	-6596
cycle	-6597
small	-6598
rotation	-6599
▁Search	-6600
utx	-6601
uzz	-6602
▁statement	-6603
positions	-6604
Selector	-6605
ERE	-6606
▁your	-6607
<_,	-6608
UST	-6609
Bucket	-6610
Vis	-6611
▁dot	-6612
▁dispatch	-6613
icip	-6614
▁indent	-6615
uplicate	-6616
▁Document	-6617
▁Xaml	-6618
▁sol	-6619
▁cost	-6620
▁surface	-6621
px	-6622
transition	-6623
idl	-6624
infos	-6625
background	-6626
(32,	-6627
BUFFER	-6628
▁forward	-6629
▁area	-6630
Hand	-6631
cut	-6632
lour	-6633
sOutput	-6634
▁vault	-6635
olute	-6636
amage	-6637
expand	-6638
▁4;	-6639
▁master	-6640
▁correct	-6641
00);	-6642
Exists	-6643
anagement	-6644
duce	-6645
ints	-6646
zeros	-6647
▁Shared	-6648
▁Decode	-6649
(1.0,	-6650
oreign	-6651
▁maximum	-6652
(0..	-6653
typed	-6654
▁requires	-6655
▁cat	-6656
avor	-6657
Unsupported	-6658
pio	-6659
▁initialize	-6660
(64,	-6661
98,	-6662
tracing	-6663
links	-6664
sInput	-6665
▁Enum	-6666
rowser	-6667
uffle	-6668
FIX	-6669
ffffffff	-6670
chat	-6671
Sample	-6672
▁rsthis	-6673
logy	-6674
▁Ip	-6675
Props	-6676
ele	-6677
ARI	-6678
▁12,	-6679
contextmenu	-6680
▁cookie	-6681
Real	-6682
▁20,	-6683
CONT	-6684
under	-6685
▁rev	-6686
olynomial	-6687
lying	-6688
oding	-6689
Form	-6690
If	-6691
Utf	-6692
▁0.,	-6693
▁Kind	-6694
coords	-6695
initialize	-6696
▁ErrorCode	-6697
▁IP	-6698
media	-6699
▁oncontextmenu	-6700
ATTR	-6701
Release	-6702
Validator	-6703
▁Ast	-6704
▁between	-6705
endor	-6706
constraints	-6707
puted	-6708
kill	-6709
▁implement	-6710
Namespace	-6711
32",	-6712
quad	-6713
▁boot	-6714
▁peers	-6715
curve	-6716
Usize	-6717
▁moved	-6718
▁permission	-6719
ReferenceTypeId	-6720
▁phase	-6721
CAL	-6722
▁threshold	-6723
iterator	-6724
Alias	-6725
uer	-6726
_1!(	-6727
Inv	-6728
OS	-6729
Deque	-6730
eof	-6731
workspace	-6732
Vk	-6733
orth	-6734
ventory	-6735
weak	-6736
Admin	-6737
▁ymm	-6738
Join	-6739
Schedule	-6740
▁URL	-6741
▁|(	-6742
▁pp	-6743
▁ps	-6744
▁1));	-6745
sin	-6746
▁GET	-6747
uallyDrop	-6748
strings	-6749
constants	-6750
mer	-6751
59	-6752
(&[0	-6753
▁bt	-6754
[&	-6755
received	-6756
look	-6757
une	-6758
▁0],	-6759
sat	-6760
xe	-6761
monitor	-6762
▁10);	-6763
▁radius	-6764
▁NO	-6765
processor	-6766
▁canvas	-6767
encrypt	-6768
▁cond	-6769
▁stderr	-6770
Surface	-6771
sts	-6772
nn	-6773
inding	-6774
▁actor	-6775
▁Builder	-6776
capture	-6777
PU	-6778
1()	-6779
▁components	-6780
filters	-6781
▁mouse	-6782
theme	-6783
SU	-6784
4)	-6785
kr	-6786
Encryption	-6787
serve	-6788
Lib	-6789
video	-6790
phase	-6791
XmlError	-6792
▁virtual	-6793
TreeSet	-6794
▁seconds	-6795
Requests	-6796
83	-6797
▁et	-6798
aries	-6799
OB	-6800
commitment	-6801
▁candidate	-6802
hit	-6803
poser	-6804
Repository	-6805
▁Azure	-6806
quidity	-6807
▁*=	-6808
ATOR	-6809
49	-6810
▁side	-6811
aligned	-6812
▁flow	-6813
increment	-6814
_12	-6815
boma	-6816
failed	-6817
issues	-6818
▁just	-6819
environment	-6820
▁receive	-6821
ahead	-6822
Peekable	-6823
Prost	-6824
▁Next	-6825
noop	-6826
Patch	-6827
instant	-6828
closure	-6829
Feature	-6830
▁plugin	-6831
cases	-6832
▁formatting	-6833
ale	-6834
payment	-6835
overl	-6836
ARD	-6837
!((	-6838
▁bob	-6839
▁appro	-6840
▁volume	-6841
2()	-6842
▁reward	-6843
WRITE	-6844
▁cp	-6845
Category	-6846
ru	-6847
exchange	-6848
AndQuery	-6849
`].	-6850
▁Auth	-6851
illi	-6852
ii	-6853
witness	-6854
targets	-6855
FS	-6856
ropped	-6857
▁[&	-6858
▁predicate	-6859
neighb	-6860
▁Change	-6861
25,	-6862
___	-6863
▁mapping	-6864
▁Order	-6865
upied	-6866
pallet	-6867
!(0	-6868
alive	-6869
▁AR	-6870
VEX	-6871
▁Host	-6872
▁linux	-6873
dimensions	-6874
▁png	-6875
▁background	-6876
Cancel	-6877
Arch	-6878
cam	-6879
▁bb	-6880
▁IsA	-6881
foundation	-6882
terminal	-6883
"))	-6884
▁Eval	-6885
▁Alloc	-6886
platform	-6887
subject	-6888
▁prepare	-6889
ivated	-6890
1));	-6891
overn	-6892
▁cy	-6893
Xmm	-6894
HR	-6895
▁AD	-6896
plates	-6897
Pageable	-6898
▁pkg	-6899
home	-6900
▁Iter	-6901
ValueNull	-6902
3",	-6903
backup	-6904
▁Bin	-6905
>;	-6906
▁expand	-6907
▁sqlite	-6908
▁binding	-6909
▁perform	-6910
QUEST	-6911
alignment	-6912
Dr	-6913
Transport	-6914
▁multiple	-6915
material	-6916
rsp	-6917
▁Char	-6918
black	-6919
tee	-6920
▁power	-6921
▁props	-6922
ProstCodec	-6923
!(1,	-6924
ANGE	-6925
focus	-6926
▁dead	-6927
▁Batch	-6928
packed	-6929
▁Mark	-6930
09	-6931
▁mi	-6932
▁Sc	-6933
▁camera	-6934
▁instr	-6935
▁Rpc	-6936
Varint	-6937
rank	-6938
Language	-6939
128_	-6940
Win	-6941
▁borrow	-6942
connector	-6943
onent	-6944
()))?	-6945
▁Class	-6946
▁language	-6947
Prop	-6948
Fl	-6949
encil	-6950
▁Media	-6951
aining	-6952
(12	-6953
▁er	-6954
▁complete	-6955
subscribe	-6956
tended	-6957
andbox	-6958
EM	-6959
scheme	-6960
▁Meta	-6961
extensions	-6962
codes	-6963
Insert	-6964
69	-6965
▁sup	-6966
union	-6967
IntoRequest	-6968
sb	-6969
▁named	-6970
atable	-6971
Metrics	-6972
KeyCode	-6973
▁Datum	-6974
LIC	-6975
▁50	-6976
▁0));	-6977
efficient	-6978
▁3.	-6979
32],	-6980
▁issue	-6981
▁Def	-6982
Allow	-6983
▁REG	-6984
eshot	-6985
▁ca	-6986
canister	-6987
posed	-6988
aliase	-6989
Net	-6990
too	-6991
▁shutdown	-6992
▁Amazon	-6993
▁stretch	-6994
Executor	-6995
▁sock	-6996
▁Chunk	-6997
HANDLE	-6998
▁home	-6999
▁Ac	-7000
funcs	-7001
▁Serializer	-7002
▁Execute	-7003
VEL	-7004
▁lang	-7005
▁Sql	-7006
closed	-7007
hdr	-7008
▁Tensor	-7009
AW	-7010
>((&	-7011
▁pat	-7012
disk	-7013
▁oc	-7014
FieldReader	-7015
▁unused	-7016
▁compare	-7017
leet	-7018
▁NOT	-7019
Atom	-7020
==	-7021
▁Sends	-7022
izing	-7023
streams	-7024
▁sec	-7025
STATE	-7026
ASS	-7027
Trace	-7028
▁Mutex	-7029
67	-7030
olicies	-7031
ni	-7032
▁Html	-7033
▁Gr	-7034
▁download	-7035
▁chunks	-7036
▁&"	-7037
PathAndQuery	-7038
(4,	-7039
▁product	-7040
47	-7041
▁3;	-7042
▁router	-7043
▁recipient	-7044
gui	-7045
▁aa	-7046
Complet	-7047
▁11,	-7048
Keys	-7049
lick	-7050
Obj	-7051
DIS	-7052
▁Writes	-7053
▁removed	-7054
▁")?,	-7055
▁special	-7056
▁Uuid	-7057
SEL	-7058
iffic	-7059
ifficult	-7060
WireTypeVarint	-7061
▁Interrupt	-7062
0>(&	-7063
((_,	-7064
reduce	-7065
Information	-7066
<[`	-7067
ants	-7068
strategy	-7069
via	-7070
Sys	-7071
▁following	-7072
52	-7073
Main	-7074
retain	-7075
while	-7076
NET	-7077
Cal	-7078
Seek	-7079
Sem	-7080
▁docs	-7081
stract	-7082
yles	-7083
▁128	-7084
iment	-7085
My	-7086
▁platform	-7087
crim	-7088
▁lp	-7089
ATCH	-7090
AV	-7091
mid	-7092
acer	-7093
iration	-7094
▁36	-7095
▁8);	-7096
▁View	-7097
trigger	-7098
aring	-7099
▁pg	-7100
existing	-7101
Assign	-7102
▁disable	-7103
:1	-7104
special	-7105
ARGET	-7106
broadcast	-7107
▁Dep	-7108
▁2]	-7109
ours	-7110
)*	-7111
arity	-7112
▁wrong	-7113
▁tab	-7114
▁Move	-7115
utomation	-7116
ANT	-7117
Push	-7118
▁deleg	-7119
colors	-7120
▁factor	-7121
Pass	-7122
where	-7123
Interval	-7124
▁trigger	-7125
▁Cache	-7126
floor	-7127
decoded	-7128
▁Ow	-7129
fund	-7130
▁Iced	-7131
12345678	-7132
SocketAddr	-7133
BE	-7134
▁RootElement	-7135
arning	-7136
prelude	-7137
127.0.0.	-7138
▁vp	-7139
▁stake	-7140
_1()	-7141
NUM	-7142
Resources	-7143
))?	-7144
▁vars	-7145
▁syntax	-7146
yaml	-7147
HEADER	-7148
ciphertext	-7149
▁folder	-7150
▁WHERE	-7151
▁ray	-7152
▁groups	-7153
▁console	-7154
▁Sized	-7155
ifficulty	-7156
Logger	-7157
▁another	-7158
▁po	-7159
▁bus	-7160
▁ostream	-7161
resolver	-7162
▁4)	-7163
etype	-7164
▁tri	-7165
▁Put	-7166
▁helper	-7167
▁Pool	-7168
▁Simple	-7169
arena	-7170
▁Author	-7171
Asm	-7172
udo	-7173
Rest	-7174
▁axis	-7175
exc	-7176
digits	-7177
voice	-7178
▁mid	-7179
Owner	-7180
lens	-7181
connections	-7182
▁512	-7183
▁rem	-7184
sd	-7185
([0	-7186
▁ob	-7187
norm	-7188
[5	-7189
oting	-7190
defs	-7191
ufficient	-7192
Card	-7193
square	-7194
bitmap	-7195
ulate	-7196
▁We	-7197
▁Instance	-7198
▁uid	-7199
Accept	-7200
▁relative	-7201
▁media	-7202
leader	-7203
▁0.0;	-7204
SIT	-7205
▁Execution	-7206
▁present	-7207
updates	-7208
assertions	-7209
Paren	-7210
▁cancel	-7211
units	-7212
▁within	-7213
0000000	-7214
RusotoError	-7215
▁category	-7216
LY	-7217
Folder	-7218
▁Cargo	-7219
VALUE	-7220
!((*	-7221
.0.0	-7222
KIND	-7223
TF	-7224
▁transactions	-7225
differ	-7226
IAL	-7227
▁`&	-7228
▁channels	-7229
Org	-7230
▁16,	-7231
AST	-7232
pur	-7233
boolean	-7234
▁dimension	-7235
CONFIG	-7236
▁Use	-7237
CLI	-7238
▁our	-7239
▁material	-7240
▁Decimal	-7241
pixels	-7242
▁certificate	-7243
▁Compute	-7244
oose	-7245
▁crypto	-7246
▁0.0),	-7247
▁edit	-7248
▁board	-7249
iness	-7250
virtual	-7251
Share	-7252
variants	-7253
(16	-7254
ae	-7255
paint	-7256
tw	-7257
NOT	-7258
▁IcedError	-7259
(2).	-7260
32(&	-7261
▁1],	-7262
▁metric	-7263
▁requested	-7264
▁Texture	-7265
57	-7266
[2].	-7267
▁suffix	-7268
101	-7269
fast	-7270
▁require	-7271
▁constructor	-7272
▁DIR	-7273
▁claim	-7274
destroy	-7275
Qual	-7276
▁deposit	-7277
Volume	-7278
▁disk	-7279
beat	-7280
▁JsValue	-7281
▁samples	-7282
200	-7283
▁orig	-7284
trie	-7285
▁starting	-7286
withdraw	-7287
alled	-7288
▁llvm	-7289
Fields	-7290
▁backup	-7291
Ops	-7292
Ast	-7293
clk	-7294
▁3),	-7295
▁Port	-7296
Staking	-7297
glyph	-7298
IB	-7299
camera	-7300
waker	-7301
validators	-7302
▁period	-7303
Items	-7304
Gtk	-7305
SOUND	-7306
preter	-7307
FFFF	-7308
▁mac	-7309
clave	-7310
disable	-7311
lc	-7312
▁Os	-7313
Mesh	-7314
shr	-7315
Comm	-7316
normalize	-7317
▁Insert	-7318
▁Custom	-7319
Clock	-7320
<_>>()	-7321
Cr	-7322
▁words	-7323
allib	-7324
Monitor	-7325
lis	-7326
▁TR	-7327
abe	-7328
checksum	-7329
▁UN	-7330
asis	-7331
layers	-7332
9999	-7333
assume	-7334
linear	-7335
counts	-7336
LittleEndian	-7337
▁ledger	-7338
Plugin	-7339
Room	-7340
![]);	-7341
AAAA	-7342
gm	-7343
▁setting	-7344
permissions	-7345
▁{"	-7346
override	-7347
major	-7348
Amount	-7349
finished	-7350
▁26	-7351
subnet	-7352
▁Typed	-7353
utc	-7354
El	-7355
_9	-7356
emon	-7357
▁incoming	-7358
nested	-7359
unexpected	-7360
CD	-7361
ometh	-7362
tex	-7363
▁dy	-7364
▁Mon	-7365
▁authority	-7366
▁video	-7367
varint	-7368
▁half	-7369
grpc	-7370
Unauthorized	-7371
▁Schema	-7372
omething	-7373
▁enc	-7374
Short	-7375
lifetime	-7376
▁history	-7377
▁15,	-7378
▁Operator	-7379
xx	-7380
listen	-7381
▁AC	-7382
Light	-7383
Uri	-7384
td	-7385
np	-7386
▁stage	-7387
spaces	-7388
nanos	-7389
▁reserved	-7390
▁rd	-7391
sv	-7392
Enabled	-7393
▁Sw	-7394
egr	-7395
>>>,	-7396
▁SHA	-7397
▁caller	-7398
▁additional	-7399
aper	-7400
ffine	-7401
Indexed	-7402
nounce	-7403
▁rb	-7404
ormed	-7405
dirty	-7406
>],	-7407
afe	-7408
uses	-7409
incoming	-7410
allible	-7411
.2	-7412
SHA	-7413
Side	-7414
CONTENT	-7415
lexer	-7416
Off	-7417
las	-7418
▁utf	-7419
bd	-7420
[0]);	-7421
ough	-7422
fully	-7423
▁He	-7424
Payment	-7425
▁actions	-7426
▁decoded	-7427
▁est	-7428
▁pubkey	-7429
endian	-7430
▁overflow	-7431
▁border	-7432
64()	-7433
▁requests	-7434
Utc	-7435
▁Appends	-7436
encryption	-7437
▁stdin	-7438
kg	-7439
stor	-7440
▁sz	-7441
fixture	-7442
▁priority	-7443
▁card	-7444
▁"])	-7445
▁60	-7446
▁pred	-7447
amma	-7448
NG	-7449
▁renderer	-7450
▁Der	-7451
▁many	-7452
sound	-7453
LOG	-7454
▁VER	-7455
circuit	-7456
▁bot	-7457
▁keep	-7458
switch	-7459
mk	-7460
ordered	-7461
mpst	-7462
Pixel	-7463
CUR	-7464
affic	-7465
▁extend	-7466
▁elapsed	-7467
gate	-7468
lices	-7469
▁/>	-7470
Crypto	-7471
refresh	-7472
▁&[98,	-7473
negative	-7474
Cre	-7475
(10,	-7476
stit	-7477
deem	-7478
▁calculate	-7479
ocker	-7480
assets	-7481
_(	-7482
▁_),	-7483
▁Scope	-7484
sprite	-7485
ving	-7486
▁3)	-7487
▁(2	-7488
roid	-7489
▁!(0	-7490
Union	-7491
rea	-7492
aved	-7493
.0))	-7494
32>::	-7495
▁stored	-7496
Sort	-7497
resolved	-7498
Required	-7499
▁}],	-7500
ather	-7501
pipe	-7502
▁glyph	-7503
antity	-7504
hasher	-7505
conversion	-7506
▁hyper	-7507
margin	-7508
!(0,	-7509
Keyword	-7510
handles	-7511
▁listen	-7512
▁[1,	-7513
riend	-7514
▁Project	-7515
PH	-7516
▁primary	-7517
▁generator	-7518
▁perm	-7519
▁VM	-7520
lers	-7521
cells	-7522
geometry	-7523
▁1.1	-7524
INF	-7525
gst	-7526
chan	-7527
▁TokenKind	-7528
Reset	-7529
▁retry	-7530
evaluate	-7531
rep	-7532
iry	-7533
icker	-7534
▁asm	-7535
contact	-7536
irv	-7537
▁relay	-7538
MBER	-7539
pound	-7540
▁upload	-7541
▁Draw	-7542
decrypt	-7543
etermin	-7544
▁US	-7545
aaaa	-7546
gno	-7547
▁angle	-7548
bump	-7549
▁ds	-7550
▁tasks	-7551
translation	-7552
11,	-7553
REQUEST	-7554
▁loaded	-7555
▁32,	-7556
xtures	-7557
instances	-7558
physical	-7559
▁credentials	-7560
finite	-7561
oring	-7562
mainder	-7563
trinsics	-7564
caps	-7565
▁Min	-7566
▁always	-7567
▁labels	-7568
overnance	-7569
68	-7570
▁generics	-7571
▁records	-7572
▁Region	-7573
intern	-7574
▁"2022	-7575
ArgMatches	-7576
).0);	-7577
css	-7578
hub	-7579
Destination	-7580
ookie	-7581
fm	-7582
ensure	-7583
cores	-7584
Deployment	-7585
▁never	-7586
START	-7587
Grid	-7588
▁recur	-7589
▁clip	-7590
credentials	-7591
scene	-7592
irq	-7593
SSAGE	-7594
▁fold	-7595
AIN	-7596
Unsigned	-7597
bf	-7598
▁Vertex	-7599
dynamic	-7600
ODO	-7601
udit	-7602
instructions	-7603
Product	-7604
▁&[]);	-7605
Rocks	-7606
▁unhandled	-7607
ario	-7608
_000,	-7609
Reserved	-7610
▁ve	-7611
icast	-7612
▁[0,	-7613
Capture	-7614
▁PartialEq	-7615
Width	-7616
())));	-7617
MissingField	-7618
dependencies	-7619
(5,	-7620
__:	-7621
▁PublicKey	-7622
PA	-7623
dataset	-7624
plier	-7625
▁Adds	-7626
uv	-7627
pend	-7628
▁1.0);	-7629
▁Az	-7630
▁Select	-7631
▁ent	-7632
keyword	-7633
Resolver	-7634
Agent	-7635
erialized	-7636
_2,	-7637
▁selector	-7638
▁Lit	-7639
▁marker	-7640
Broadcast	-7641
Mat	-7642
Outcome	-7643
BASE	-7644
inherit	-7645
▁dump	-7646
43	-7647
>)>	-7648
singular	-7649
▁&_	-7650
▁VAL	-7651
anded	-7652
▁Inner	-7653
security	-7654
_2.	-7655
running	-7656
OLD	-7657
UNK	-7658
()]);	-7659
levels	-7660
uous	-7661
Blob	-7662
▁DateTime	-7663
▁variables	-7664
_16	-7665
compatible	-7666
▁-1,	-7667
oftware	-7668
algorithm	-7669
wer	-7670
PORT	-7671
▁KeyCode	-7672
affy	-7673
CValue	-7674
▁Pubkey	-7675
▁IO	-7676
▁times	-7677
▁Secret	-7678
UD	-7679
pology	-7680
▁lexer	-7681
ilon	-7682
router	-7683
▁Eng	-7684
xF	-7685
piece	-7686
excute	-7687
zen	-7688
▁factory	-7689
addrs	-7690
phan	-7691
▁scratch	-7692
▁With	-7693
subcommand	-7694
Closed	-7695
▁Opt	-7696
)])	-7697
activity	-7698
TX	-7699
nowled	-7700
▁Script	-7701
izable	-7702
rotate	-7703
128(	-7704
Tab	-7705
ARY	-7706
Tls	-7707
Height	-7708
Rules	-7709
Bundle	-7710
3));	-7711
Backup	-7712
_2()	-7713
Print	-7714
Balances	-7715
WA	-7716
▁Basic	-7717
ocab	-7718
Execute	-7719
radix	-7720
ray	-7721
(_),	-7722
]))	-7723
mmediate	-7724
Mismatch	-7725
cogn	-7726
▁hook	-7727
LEVEL	-7728
Association	-7729
ManuallyDrop	-7730
Continue	-7731
▁eps	-7732
Email	-7733
coped	-7734
[..]).	-7735
rst	-7736
▁mk	-7737
canvas	-7738
schem	-7739
imports	-7740
>),	-7741
_10	-7742
▁scene	-7743
▁compiler	-7744
Tool	-7745
rustc	-7746
Bits	-7747
▁LOG	-7748
GPIO	-7749
▁CS	-7750
plus	-7751
▁-0.	-7752
days	-7753
Tokens	-7754
cycles	-7755
NC	-7756
references	-7757
freq	-7758
▁keypair	-7759
▁ether	-7760
▁TODO	-7761
approx	-7762
ecycle	-7763
balances	-7764
Break	-7765
Inline	-7766
64(&	-7767
attack	-7768
illing	-7769
▁fixed	-7770
Points	-7771
▁Statement	-7772
▁publish	-7773
▁Fixed	-7774
Features	-7775
▁nom	-7776
▁age	-7777
shell	-7778
▁Package	-7779
(9	-7780
unnel	-7781
MaskReg	-7782
▁mer	-7783
▁submit	-7784
▁art	-7785
▁atom	-7786
KE	-7787
▁0.0);	-7788
Dynamic	-7789
▁percent	-7790
▁abs	-7791
▁Post	-7792
URL	-7793
versation	-7794
▁abort	-7795
triple	-7796
LIMIT	-7797
ained	-7798
ailbox	-7799
bidden	-7800
ANS	-7801
▁prec	-7802
compact	-7803
▁LLVM	-7804
most	-7805
▁ack	-7806
steps	-7807
▁Body	-7808
dirs	-7809
Axis	-7810
▁known	-7811
384	-7812
▁Deserializer	-7813
▁Up	-7814
Fragment	-7815
▁nums	-7816
▁threads	-7817
Comment	-7818
▁sprite	-7819
▁Should	-7820
▁Encoding	-7821
())))	-7822
HSTRING	-7823
Supported	-7824
Password	-7825
iid	-7826
extern	-7827
▁library	-7828
▁Max	-7829
require	-7830
benchmark	-7831
Vpc	-7832
▁Thread	-7833
RGB	-7834
▁"];	-7835
inant	-7836
Rust	-7837
INDEX	-7838
widl	-7839
indexes	-7840
▁front	-7841
▁Clo	-7842
dump	-7843
▁Model	-7844
<_>>(),	-7845
mir	-7846
ctor	-7847
▁1",	-7848
Syn	-7849
rase	-7850
▁models	-7851
->	-7852
▁specific	-7853
untry	-7854
▁4]	-7855
met	-7856
Poll	-7857
traits	-7858
atile	-7859
▁AS	-7860
BigInt	-7861
login	-7862
rgba	-7863
Replication	-7864
▁blue	-7865
▁_);	-7866
Coded	-7867
Bus	-7868
iation	-7869
▁Constraint	-7870
>());	-7871
MT	-7872
▁8;	-7873
▁Timestamp	-7874
igr	-7875
Predicate	-7876
▁ss	-7877
paque	-7878
▁capture	-7879
▁Literal	-7880
▁frames	-7881
atial	-7882
▁Crypto	-7883
ggle	-7884
optim	-7885
(3);	-7886
▁Find	-7887
anchor	-7888
download	-7889
lisher	-7890
sensitive	-7891
bon	-7892
History	-7893
▁vs	-7894
ao	-7895
).1);	-7896
utomatic	-7897
▁echo	-7898
▁Be	-7899
▁share	-7900
▁Virtual	-7901
2))	-7902
▁bec	-7903
Worker	-7904
dic	-7905
nom	-7906
▁cipher	-7907
Complete	-7908
_0_	-7909
jmp	-7910
▁license	-7911
▁year	-7912
▁Bar	-7913
▁Db	-7914
dy	-7915
▁vals	-7916
▁updates	-7917
ccupied	-7918
reas	-7919
rsthis	-7920
▁methods	-7921
Free	-7922
upload	-7923
tor	-7924
Done	-7925
handshake	-7926
▁algorithm	-7927
▁fetched	-7928
▁arn	-7929
anel	-7930
DIR	-7931
denom	-7932
InternalError	-7933
methods	-7934
devices	-7935
▁Empty	-7936
▁archive	-7937
NV	-7938
Branch	-7939
▁Label	-7940
EB	-7941
(0))	-7942
▁cols	-7943
mutation	-7944
▁edges	-7945
ssl	-7946
▁&[0	-7947
[*	-7948
ailability	-7949
▁peek	-7950
atal	-7951
loom	-7952
});	-7953
($	-7954
month	-7955
▁look	-7956
stride	-7957
▁outer	-7958
car	-7959
▁here	-7960
ommend	-7961
▁taffy	-7962
160	-7963
▁lat	-7964
Heap	-7965
▁instant	-7966
Me	-7967
pay	-7968
esting	-7969
▁grad	-7970
category	-7971
\0	-7972
large	-7973
▁RetType	-7974
▁terminal	-7975
coeff	-7976
▁0".	-7977
Exist	-7978
ulus	-7979
renderer	-7980
▁Metadata	-7981
Final	-7982
Es	-7983
▁defined	-7984
RT	-7985
gy	-7986
Poly	-7987
▁16)	-7988
CAP	-7989
▁added	-7990
Curve	-7991
encrypted	-7992
eting	-7993
prime	-7994
BL	-7995
1.0	-7996
subxt	-7997
Renderer	-7998
▁4];	-7999
aked	-8000
Processor	-8001
ango	-8002
MethodTable	-8003
▁every	-8004
ury	-8005
ority	-8006
▁Criterion	-8007
elemetry	-8008
spans	-8009
covered	-8010
placed	-8011
▁pi	-8012
▁unsigned	-8013
Cast	-8014
tored	-8015
▁Syn	-8016
IVE	-8017
Watch	-8018
imitives	-8019
unity	-8020
▁ERROR	-8021
▁mount	-8022
92	-8023
limbs	-8024
▁Ipv	-8025
haust	-8026
OFF	-8027
▁mm	-8028
▁correspon	-8029
▁123	-8030
disabled	-8031
degree	-8032
▁5.5	-8033
Leaf	-8034
▁opcode	-8035
nr	-8036
▁yew	-8037
0).	-8038
Lookup	-8039
captures	-8040
ymmetric	-8041
▁refer	-8042
archive	-8043
▁Couldn	-8044
2(&	-8045
▁Audio	-8046
▁]),	-8047
▁Mutable	-8048
CONTR	-8049
vp	-8050
EventDefinition	-8051
▁Commit	-8052
cesses	-8053
▁shell	-8054
▁dx	-8055
artifact	-8056
:&	-8057
bond	-8058
datetime	-8059
lee	-8060
▁Property	-8061
scripten	-8062
alformed	-8063
▁Endpoint	-8064
BITS	-8065
Find	-8066
▁checked	-8067
constructor	-8068
ardware	-8069
idle	-8070
Opcode	-8071
Declaration	-8072
enario	-8073
▁Engine	-8074
verride	-8075
▁minimum	-8076
BlockId	-8077
▁fork	-8078
5),	-8079
▁pow	-8080
aps	-8081
ADDRESS	-8082
artbeat	-8083
▁PyResult	-8084
sessment	-8085
ingerprint	-8086
fake	-8087
▁2],	-8088
▁Inst	-8089
bum	-8090
Bitmap	-8091
was	-8092
▁rv	-8093
▁disabled	-8094
eager	-8095
▁ep	-8096
▁Rout	-8097
Quota	-8098
achain	-8099
_);	-8100
KG	-8101
▁segments	-8102
INITY	-8103
aux	-8104
Arguments	-8105
iesel	-8106
Screen	-8107
▁returning	-8108
▁Unpin	-8109
▁)]	-8110
1_1);	-8111
asc	-8112
▁circuit	-8113
▁notification	-8114
▁")))]	-8115
Small	-8116
▁RefCell	-8117
▁bg	-8118
wm	-8119
bold	-8120
wgpu	-8121
imited	-8122
▁emscripten	-8123
TOKEN	-8124
health	-8125
additional	-8126
▁99	-8127
OsStr	-8128
▁(2,	-8129
▁may	-8130
LON	-8131
::<&	-8132
deploy	-8133
pared	-8134
PAGE	-8135
.3	-8136
(1000	-8137
ested	-8138
gnored	-8139
tempts	-8140
▁book	-8141
▁theme	-8142
TABLE	-8143
Random	-8144
▁safe	-8145
recipient	-8146
▁abi	-8147
▁optim	-8148
▁dict	-8149
BTreeMap	-8150
▁3],	-8151
▁NULL	-8152
▁pairs	-8153
DESC	-8154
▁based	-8155
▁VecDeque	-8156
▁1234	-8157
▁BU	-8158
Idx	-8159
logical	-8160
ilation	-8161
▁artifact	-8162
minimum	-8163
▁HE	-8164
editor	-8165
OutOf	-8166
Repr	-8167
ropy	-8168
party	-8169
deprecated	-8170
services	-8171
▁Eq	-8172
Percent	-8173
Partial	-8174
▁BigInt	-8175
elist	-8176
Regex	-8177
ymd	-8178
Pallet	-8179
library	-8180
seal	-8181
gre	-8182
crease	-8183
example	-8184
uy	-8185
▁stride	-8186
ecc	-8187
MergeMode	-8188
kb	-8189
Vote	-8190
Timer	-8191
far	-8192
▁chat	-8193
comments	-8194
▁10;	-8195
issue	-8196
land	-8197
▁)?,	-8198
Stdio	-8199
▁benchmark	-8200
orig	-8201
▁cred	-8202
▁sq	-8203
ancer	-8204
Beacon	-8205
verity	-8206
jobs	-8207
rozen	-8208
▁login	-8209
▁locked	-8210
GER	-8211
▁fast	-8212
urlen	-8213
▁Either	-8214
Modify	-8215
igrate	-8216
▁DI	-8217
▁connected	-8218
▁double	-8219
▁Generate	-8220
dx	-8221
ProtobufResult	-8222
abort	-8223
▁needs	-8224
Deleg	-8225
IAsync	-8226
▁Constant	-8227
precision	-8228
▁encrypted	-8229
xor	-8230
bine	-8231
uestion	-8232
thing	-8233
IoError	-8234
complexity	-8235
Marker	-8236
ugins	-8237
adjust	-8238
umulator	-8239
▁puts	-8240
▁currently	-8241
Foo	-8242
▁csv	-8243
▁logs	-8244
▁monitor	-8245
FailureException	-8246
NU	-8247
▁dbg	-8248
▁lex	-8249
▁/*	-8250
▁Converts	-8251
wt	-8252
PL	-8253
▁testing	-8254
▁ans	-8255
▁VALUE	-8256
eal	-8257
supply	-8258
Authority	-8259
▁fighter	-8260
Diff	-8261
▁gpio	-8262
128)	-8263
[3],	-8264
82	-8265
▁Graphics	-8266
▁canister	-8267
▁Coord	-8268
▁repository	-8269
oct	-8270
Instances	-8271
subscriber	-8272
▁DispatchResult	-8273
_)	-8274
epi	-8275
URCE	-8276
duplicate	-8277
Actor	-8278
codegen	-8279
uction	-8280
tection	-8281
agram	-8282
pect	-8283
▁SD	-8284
▁colors	-8285
World	-8286
gs	-8287
exe	-8288
▁vertices	-8289
gd	-8290
stone	-8291
▁decimal	-8292
▁until	-8293
locations	-8294
MAL	-8295
mine	-8296
removed	-8297
▁reading	-8298
COMP	-8299
visor	-8300
RIPT	-8301
Family	-8302
MEM	-8303
ah	-8304
Activity	-8305
sections	-8306
▁face	-8307
▁continuation	-8308
(10);	-8309
▁gc	-8310
▁feed	-8311
live	-8312
Depth	-8313
POCH	-8314
ength	-8315
86_64	-8316
Face	-8317
esome	-8318
regions	-8319
USER	-8320
Overflow	-8321
02,	-8322
ucky	-8323
▁Widget	-8324
uator	-8325
▁trie	-8326
DO	-8327
▁sqlx	-8328
RocksDbWeight	-8329
▁reqwest	-8330
93	-8331
▁pallet	-8332
Verification	-8333
Elem	-8334
▁Buffered	-8335
▁Termin	-8336
orum	-8337
▁scroll	-8338
delegate	-8339
(4),	-8340
Lim	-8341
pull	-8342
▁menu	-8343
▁wrapper	-8344
allocator	-8345
Ctxt	-8346
consts	-8347
▁completing	-8348
63	-8349
Solution	-8350
▁doesn	-8351
Last	-8352
▁curve	-8353
▁CallType	-8354
64>)	-8355
CHECK	-8356
32()	-8357
Digest	-8358
PRI	-8359
about	-8360
▁collision	-8361
64],	-8362
▁Import	-8363
▁AccountId	-8364
2".	-8365
4),	-8366
Rad	-8367
▁Collection	-8368
roots	-8369
ancell	-8370
Note	-8371
jected	-8372
▁END	-8373
ERR	-8374
Keypair	-8375
roker	-8376
Publish	-8377
mix	-8378
inode	-8379
▁cid	-8380
▁Player	-8381
▁priv	-8382
▁calc	-8383
▁underlying	-8384
Helper	-8385
calculate	-8386
sources	-8387
20,	-8388
ples	-8389
translate	-8390
Partition	-8391
▁resolver	-8392
▁arena	-8393
▁27	-8394
packets	-8395
VARI	-8396
▁0.5,	-8397
▁ExtBuilder	-8398
Bounds	-8399
53	-8400
maps	-8401
activate	-8402
▁BytesMut	-8403
dsl	-8404
▁caps	-8405
▁Parameter	-8406
First	-8407
HttpDispatch	-8408
mgr	-8409
msgs	-8410
psz	-8411
▁dependencies	-8412
resolution	-8413
Loader	-8414
fcinfo	-8415
▁indic	-8416
overy	-8417
1"	-8418
2"	-8419
▁month	-8420
uron	-8421
Changes	-8422
PREFIX	-8423
Trigger	-8424
1(&	-8425
▁Ab	-8426
Dataset	-8427
▁validation	-8428
▁sorted	-8429
PhantomData	-8430
KHR	-8431
64>(	-8432
ersist	-8433
intersect	-8434
added	-8435
BigEndian	-8436
32))	-8437
ymmm	-8438
Fu	-8439
Scaled	-8440
▁Redis	-8441
▁1_000_000	-8442
Ev	-8443
ounded	-8444
▁Row	-8445
▁Direct	-8446
pip	-8447
▁Python	-8448
▁carry	-8449
pli	-8450
INFINITY	-8451
endar	-8452
▁written	-8453
▁Le	-8454
operations	-8455
▁BufReader	-8456
▁Hand	-8457
▁sizes	-8458
▁Slot	-8459
deleted	-8460
16);	-8461
cross	-8462
()].	-8463
▁ring	-8464
▁fund	-8465
creation	-8466
▁10000	-8467
challenge	-8468
like	-8469
▁Options	-8470
_;	-8471
thesis	-8472
Abs	-8473
reasury	-8474
▁Borrow	-8475
CFighter	-8476
▁32];	-8477
dns	-8478
▁48	-8479
▁Utc	-8480
LIST	-8481
)))?;	-8482
Signing	-8483
COLOR	-8484
processed	-8485
▁checksum	-8486
▁warp	-8487
▁ctrl	-8488
tracker	-8489
▁Vis	-8490
arness	-8491
▁2000	-8492
Sn	-8493
▁ff	-8494
▁cross	-8495
Swap	-8496
shares	-8497
▁Fl	-8498
▁increment	-8499
▁TI	-8500
Material	-8501
haustive	-8502
HASH	-8503
relay	-8504
erator	-8505
TooManyRequests	-8506
CATE	-8507
Epoch	-8508
62	-8509
JECT	-8510
▁payment	-8511
▁math	-8512
▁amz	-8513
▁Wait	-8514
criminant	-8515
forget	-8516
▁answer	-8517
candidates	-8518
Tim	-8519
Enable	-8520
7_	-8521
sell	-8522
▁currency	-8523
8()	-8524
green	-8525
▁decom	-8526
repository	-8527
>{	-8528
ji	-8529
▁Complex	-8530
dims	-8531
▁possible	-8532
BC	-8533
Graphics	-8534
frequency	-8535
▁guild	-8536
urlencoded	-8537
embed	-8538
▁addresses	-8539
ApiError	-8540
antic	-8541
Temp	-8542
0'	-8543
gid	-8544
_00	-8545
FD	-8546
erc	-8547
BR	-8548
ka	-8549
rename	-8550
NODE	-8551
(|_,	-8552
▁3]	-8553
raft	-8554
cipher	-8555
routes	-8556
▁Reader	-8557
▁OUT	-8558
LR	-8559
▁started	-8560
▁Pattern	-8561
(2));	-8562
possible	-8563
1.0,	-8564
SUB	-8565
▁offsets	-8566
▁tex	-8567
takes	-8568
▁All	-8569
EVENT	-8570
▁cnt	-8571
Clear	-8572
POINT	-8573
▁Extension	-8574
Proposal	-8575
▁relation	-8576
fit	-8577
guid	-8578
https	-8579
(()));	-8580
▁market	-8581
▁Fe	-8582
24,	-8583
cedure	-8584
▁HttpResponse	-8585
trailing	-8586
▁formatted	-8587
▁mir	-8588
▁variants	-8589
1],	-8590
▁_>	-8591
detail	-8592
Files	-8593
2],	-8594
duction	-8595
▁(-	-8596
COM	-8597
▁|_,	-8598
anim	-8599
▁Sender	-8600
▁hit	-8601
▁entities	-8602
▁TestResult	-8603
velocity	-8604
▁respon	-8605
NEL	-8606
▁dataset	-8607
ampling	-8608
▁arm	-8609
▁least	-8610
Div	-8611
▁stroke	-8612
▁0:	-8613
▁BTreeSet	-8614
more	-8615
▁filters	-8616
CCESS	-8617
revision	-8618
ithmetic	-8619
formance	-8620
▁switch	-8621
cel	-8622
egacy	-8623
▁witness	-8624
▁large	-8625
▁kv	-8626
asurement	-8627
▁201	-8628
usters	-8629
RAY	-8630
txs	-8631
▁rgb	-8632
▁CRE	-8633
gradient	-8634
referred	-8635
ulong	-8636
redicates	-8637
Assignment	-8638
▁Xml	-8639
SeekFrom	-8640
▁unable	-8641
▁beta	-8642
▁Backend	-8643
SecretKey	-8644
256(	-8645
▁syscall	-8646
offer	-8647
TRY	-8648
▁strings	-8649
bn	-8650
▁cached	-8651
sector	-8652
person	-8653
▁bc	-8654
conv	-8655
[6	-8656
hms	-8657
▁Bad	-8658
definitions	-8659
▁vol	-8660
ippet	-8661
▁TokenType	-8662
▁attempt	-8663
12_	-8664
builtin	-8665
verifier	-8666
▁spl	-8667
▁arc	-8668
Center	-8669
Cor	-8670
(5),	-8671
utter	-8672
▁fixtures	-8673
ose	-8674
ttl	-8675
▁Opcode	-8676
iverse	-8677
NAL	-8678
legal	-8679
▁Bool	-8680
Ui	-8681
Calls	-8682
▁Addr	-8683
_<	-8684
weights	-8685
submodules	-8686
▁4),	-8687
Recv	-8688
▁mix	-8689
blockchain	-8690
▁zip	-8691
25519_	-8692
((&	-8693
▁denom	-8694
▁Natural	-8695
▁instructions	-8696
SerializeStruct	-8697
▁limbs	-8698
▁define	-8699
pas	-8700
▁Job	-8701
arrow	-8702
PREFER	-8703
▁Clear	-8704
▁bs	-8705
Aggregate	-8706
Conversion	-8707
()?)	-8708
32]	-8709
endent	-8710
CRY	-8711
configs	-8712
▁"))}	-8713
▁One	-8714
▁transition	-8715
ktop	-8716
▁Rng	-8717
20_	-8718
war	-8719
▁tc	-8720
inverse	-8721
▁Man	-8722
Appro	-8723
colon	-8724
Rot	-8725
▁Tile	-8726
81	-8727
sid	-8728
vl	-8729
▁Boolean	-8730
41	-8731
ternate	-8732
▁CL	-8733
Aggreg	-8734
ival	-8735
▁neighb	-8736
paren	-8737
formatter	-8738
(10),	-8739
8).	-8740
▁1))	-8741
Second	-8742
utxo	-8743
Scheme	-8744
▁summary	-8745
GC	-8746
▁Stmt	-8747
▁UTF	-8748
Anchor	-8749
continuation	-8750
▁Static	-8751
▁contact	-8752
spi	-8753
▁Round	-8754
▁fp	-8755
setting	-8756
acant	-8757
adapter	-8758
▁Encode	-8759
tid	-8760
exprs	-8761
▁Word	-8762
▁pur	-8763
paces	-8764
▁VERSION	-8765
frag	-8766
▁ME	-8767
PM	-8768
▁green	-8769
▁enter	-8770
Zone	-8771
▁ciphertext	-8772
▁deploy	-8773
▁sess	-8774
WH	-8775
▁closed	-8776
isc	-8777
signing	-8778
Two	-8779
▁($	-8780
rw	-8781
Services	-8782
▁tempdir	-8783
RequestError	-8784
verified	-8785
Arn	-8786
▁major	-8787
Feed	-8788
▁MIN	-8789
▁anchor	-8790
INPUT	-8791
▁AsmRegisterXmm	-8792
▁Timer	-8793
Upload	-8794
CHAR	-8795
paign	-8796
201	-8797
Organization	-8798
Hint	-8799
images	-8800
▁containing	-8801
▁Native	-8802
Cons	-8803
▁different	-8804
mutex	-8805
uated	-8806
▁sg	-8807
▁})?	-8808
team	-8809
REGION	-8810
▁SystemTime	-8811
readonly	-8812
mean	-8813
Displaced	-8814
eces	-8815
▁pipe	-8816
allocation	-8817
▁refresh	-8818
▁Slice	-8819
Ack	-8820
ULE	-8821
configure	-8822
afety	-8823
Shift	-8824
Ren	-8825
clients	-8826
chr	-8827
▁Missing	-8828
authentic	-8829
ism	-8830
▁Sys	-8831
▁Edge	-8832
▁ExprKind	-8833
▁constants	-8834
replica	-8835
▁replica	-8836
▁xy	-8837
[..])	-8838
▁regs	-8839
▁))),	-8840
(200	-8841
▁occur	-8842
strict	-8843
blend	-8844
▁security	-8845
▁Params	-8846
evt	-8847
payer	-8848
▁ix	-8849
ainten	-8850
wards	-8851
inf	-8852
▁icall	-8853
▁inp	-8854
joint	-8855
information	-8856
olation	-8857
perm	-8858
▁80	-8859
cause	-8860
emo	-8861
park	-8862
▁yaml	-8863
▁creation	-8864
Clause	-8865
ZN	-8866
Tile	-8867
▁matching	-8868
▁"201	-8869
orter	-8870
orders	-8871
▁Join	-8872
▁nan	-8873
▁confirm	-8874
Attachment	-8875
▁Child	-8876
cludes	-8877
plaintext	-8878
▁deleted	-8879
▁Connect	-8880
▁bug	-8881
ceil	-8882
PARAM	-8883
readable	-8884
▁embed	-8885
moves	-8886
▁team	-8887
never	-8888
assemb	-8889
aintenance	-8890
IndirectScaled	-8891
idual	-8892
▁CMsg	-8893
icture	-8894
▁ul	-8895
▁bitmap	-8896
25519::	-8897
▁Small	-8898
▁verbose	-8899
Dialog	-8900
BACK	-8901
▁inc	-8902
▁boolean	-8903
ITH	-8904
iteria	-8905
<<	-8906
Linear	-8907
finalized	-8908
▁NAME	-8909
Launch	-8910
Platform	-8911
▁Normal	-8912
▁modules	-8913
cho	-8914
wa	-8915
▁services	-8916
▁because	-8917
▁rotation	-8918
ientation	-8919
setjmp	-8920
series	-8921
agraph	-8922
▁xm	-8923
kit	-8924
plane	-8925
().0	-8926
votes	-8927
mos	-8928
1");	-8929
trusted	-8930
High	-8931
▁13,	-8932
probe	-8933
MESSAGE	-8934
icles	-8935
HString	-8936
▁Gl	-8937
pret	-8938
AF	-8939
▁AND	-8940
▁their	-8941
BAL	-8942
KeyPair	-8943
▁pixels	-8944
Authorization	-8945
DoitError	-8946
Verify	-8947
ipart	-8948
ersistent	-8949
ctxt	-8950
0>(	-8951
▁Zero	-8952
▁fake	-8953
▁strip	-8954
cwd	-8955
▁Seq	-8956
attachment	-8957
▁TABLE	-8958
bined	-8959
wrapped	-8960
loating	-8961
▁AccountMeta	-8962
▁Const	-8963
ingMode	-8964
solution	-8965
▁leader	-8966
INDOW	-8967
▁PIN	-8968
▁zmm	-8969
assignment	-8970
▁Common	-8971
MSG	-8972
unbounded	-8973
▁Push	-8974
▁zeroed	-8975
000000000000	-8976
USE	-8977
▁ping	-8978
▁plain	-8979
▁dom	-8980
▁SY	-8981
▁icallptr	-8982
ellow	-8983
sdk	-8984
Results	-8985
absolute	-8986
▁instead	-8987
Bal	-8988
TAG	-8989
lab	-8990
vpc	-8991
livery	-8992
▁them	-8993
▁Sort	-8994
▁corresponding	-8995
-10	-8996
GroupErrorKind	-8997
▁Sig	-8998
Delta	-8999
Available	-9000
Assets	-9001
amports	-9002
receipt	-9003
Distribution	-9004
medi	-9005
Complex	-9006
dm	-9007
ablish	-9008
▁once	-9009
Pg	-9010
▁CStr	-9011
▁Temp	-9012
▁Serial	-9013
Physical	-9014
91	-9015
wake	-9016
▁rank	-9017
▁organization	-9018
▁oneshot	-9019
RECT	-9020
olec	-9021
Ent	-9022
itelist	-9023
▁Identifier	-9024
Setup	-9025
Cookie	-9026
mapped	-9027
ypoint	-9028
▁Lock	-9029
HEIGHT	-9030
irewall	-9031
MAGE	-9032
▁#);	-9033
FUN	-9034
numbers	-9035
▁verifier	-9036
8]>,	-9037
▁qual	-9038
Aws	-9039
fluent	-9040
Seed	-9041
▁editor	-9042
ocused	-9043
▁primitive	-9044
▁Rt	-9045
▁states	-9046
launch	-9047
▁CF	-9048
▁consume	-9049
ertificates	-9050
Scale	-9051
▁packed	-9052
ildcard	-9053
errno	-9054
▁Application	-9055
drag	-9056
.1);	-9057
▁[&'	-9058
▁scheme	-9059
calc	-9060
nums	-9061
▁td	-9062
EventArgs	-9063
▁exception	-9064
16>	-9065
rror	-9066
▁4.	-9067
mux	-9068
▁translate	-9069
Area	-9070
▁demo	-9071
▁dynamic	-9072
▁fix	-9073
▁yield	-9074
▁Length	-9075
(0)),	-9076
ga	-9077
Runner	-9078
Handshake	-9079
MessageType	-9080
lr	-9081
▁structure	-9082
hyper	-9083
agination	-9084
parents	-9085
HTER	-9086
AlreadyExists	-9087
Analysis	-9088
answer	-9089
▁modified	-9090
FL	-9091
ARN	-9092
SW	-9093
▁owned	-9094
▁vo	-9095
separator	-9096
Cert	-9097
▁ipv	-9098
▁reverse	-9099
arest	-9100
uggestion	-9101
▁three	-9102
▁28	-9103
extent	-9104
▁Real	-9105
icipant	-9106
▁Button	-9107
collateral	-9108
▁0",	-9109
▁Receiver	-9110
-2	-9111
▁Print	-9112
distribution	-9113
Finish	-9114
▁oct	-9115
▁imported	-9116
decom	-9117
▁cos	-9118
Mo	-9119
animation	-9120
▁Sample	-9121
Align	-9122
ACTION	-9123
servers	-9124
TARGET	-9125
▁Shape	-9126
▁tables	-9127
urnal	-9128
▁gateway	-9129
than	-9130
▁Trait	-9131
herent	-9132
▁Ord	-9133
0101	-9134
Fetch	-9135
define	-9136
▁speed	-9137
▁during	-9138
ula	-9139
▁Transfer	-9140
ipts	-9141
tiles	-9142
▁physical	-9143
Fee	-9144
extended	-9145
8]>	-9146
▁32]	-9147
catch	-9148
▁connector	-9149
Provision	-9150
▁Cli	-9151
arb	-9152
▁ethers	-9153
Pat	-9154
registration	-9155
ymo	-9156
))));	-9157
▁encryption	-9158
!([	-9159
Associate	-9160
stroke	-9161
NED	-9162
middle	-9163
▁images	-9164
Transition	-9165
▁CREATE	-9166
▁FILE	-9167
()])	-9168
Html	-9169
▁diag	-9170
)]),	-9171
nb	-9172
(25	-9173
PrivateKey	-9174
diag	-9175
Adapter	-9176
mediate	-9177
11_	-9178
shadow	-9179
cloud	-9180
rewards	-9181
angles	-9182
shuffle	-9183
fol	-9184
aggregate	-9185
tries	-9186
▁trunc	-9187
Vp	-9188
▁NonNull	-9189
bridge	-9190
ferred	-9191
overlay	-9192
uit	-9193
guild	-9194
wx	-9195
prompt	-9196
Collect	-9197
509	-9198
ymous	-9199
YPE	-9200
Wallet	-9201
▁Controls	-9202
▁salt	-9203
▁inode	-9204
Relation	-9205
0(	-9206
Background	-9207
wnd	-9208
▁You	-9209
▁finished	-9210
▁upgrade	-9211
<'_>	-9212
checkpoint	-9213
Natural	-9214
▁minor	-9215
CStr	-9216
▁quad	-9217
serializer	-9218
Credentials	-9219
spanned	-9220
<_>,	-9221
ulse	-9222
▁Tuple	-9223
▁*(	-9224
![]),	-9225
Notify	-9226
:1)	-9227
▁permissions	-9228
eral	-9229
8>>,	-9230
iving	-9231
started	-9232
▁"2021-0	-9233
Phase	-9234
EPOCH	-9235
positive	-9236
▁car	-9237
▁Args	-9238
Hex	-9239
▁through	-9240
▁.0	-9241
▁creating	-9242
Driver	-9243
▁person	-9244
uby	-9245
tensors	-9246
returns	-9247
apes	-9248
▁Container	-9249
Subs	-9250
▁union	-9251
▁symbols	-9252
apon	-9253
batches	-9254
▁Stop	-9255
clusion	-9256
paginator	-9257
▁Owned	-9258
igrations	-9259
ierarch	-9260
Modifier	-9261
Vault	-9262
▁6);	-9263
IE	-9264
limits	-9265
requested	-9266
▁slots	-9267
ores	-9268
Acquire	-9269
Animation	-9270
placement	-9271
▁StdResult	-9272
VP	-9273
▁100);	-9274
ung	-9275
▁]));	-9276
quet	-9277
▁NUM	-9278
syscall	-9279
Allocator	-9280
elt	-9281
[7	-9282
Streaming	-9283
Alignment	-9284
▁withdraw	-9285
Specification	-9286
compress	-9287
xFFFF	-9288
jump	-9289
hostname	-9290
auge	-9291
INVALID	-9292
▁canonical	-9293
WM	-9294
▁icalls	-9295
51	-9296
▁Payload	-9297
completed	-9298
GA	-9299
(4);	-9300
catalog	-9301
ights	-9302
Structure	-9303
does	-9304
ivot	-9305
▁cases	-9306
VARIANT	-9307
cape	-9308
Headers	-9309
invoke	-9310
▁devices	-9311
queues	-9312
▁RT	-9313
atype	-9314
ysql	-9315
using	-9316
oves	-9317
▁Ge	-9318
▁Clock	-9319
logging	-9320
completion	-9321
▁exact	-9322
▁pact	-9323
▁Validator	-9324
▁Security	-9325
modifier	-9326
▁3.0,	-9327
tas	-9328
presentation	-9329
prob	-9330
▁gu	-9331
Activ	-9332
erated	-9333
putes	-9334
unic	-9335
ertical	-9336
127.0.0.1:	-9337
ORK	-9338
-9	-9339
phys	-9340
8>::	-9341
Large	-9342
▁44	-9343
blue	-9344
mutate	-9345
RENT	-9346
▁Member	-9347
▁ParseResult	-9348
notations	-9349
exponent	-9350
visibility	-9351
▁Pa	-9352
3;	-9353
near	-9354
▁Mouse	-9355
▁It	-9356
▁exe	-9357
▁Shell	-9358
()>(	-9359
phab	-9360
newline	-9361
▁hint	-9362
compression	-9363
[1];	-9364
Fp	-9365
onds	-9366
verter	-9367
Cloud	-9368
▁Lazy	-9369
▁allocator	-9370
▁egui	-9371
specified	-9372
TRANS	-9373
▁atomic	-9374
bid	-9375
oneof	-9376
▁psz	-9377
▁clause	-9378
uppercase	-9379
▁SIG	-9380
(1)),	-9381
Asc	-9382
}'	-9383
atalog	-9384
bv	-9385
iet	-9386
xB	-9387
egister	-9388
ServiceException	-9389
GRO	-9390
squ	-9391
▁5;	-9392
▁Pixel	-9393
▁Proto	-9394
▁extensions	-9395
minor	-9396
normalized	-9397
▁pod	-9398
▁29	-9399
▁subnet	-9400
StartObject	-9401
Bot	-9402
▁Cpu	-9403
veal	-9404
▁scheduler	-9405
BUG	-9406
classes	-9407
IAsyncOperation	-9408
heel	-9409
▁compressed	-9410
▁2];	-9411
Repo	-9412
ticks	-9413
recursive	-9414
▁escape	-9415
▁loader	-9416
pen	-9417
SERT	-9418
▁3];	-9419
atern	-9420
..].	-9421
▁Arch	-9422
▁adjust	-9423
fire	-9424
Cpu	-9425
FIGHTER	-9426
▁nv	-9427
LOAD	-9428
Manifest	-9429
Expected	-9430
CLK	-9431
oxel	-9432
SUCCESS	-9433
ResourceError	-9434
▁hashes	-9435
▁encrypt	-9436
buckets	-9437
tempdir	-9438
▁4],	-9439
▁dns	-9440
illiseconds	-9441
Plus	-9442
leaves	-9443
ea	-9444
▁examples	-9445
Circuit	-9446
▁ranges	-9447
Unary	-9448
▁());	-9449
▁offer	-9450
ifecycle	-9451
3()	-9452
InvalidData	-9453
▁epsilon	-9454
▁chan	-9455
console	-9456
otential	-9457
▁nothing	-9458
▁sen	-9459
▁TX	-9460
▁"}	-9461
DEVICE	-9462
through	-9463
sur	-9464
iq	-9465
acquire	-9466
projection	-9467
transcript	-9468
eccak	-9469
▁rm	-9470
Fill	-9471
patterns	-9472
▁seen	-9473
structor	-9474
Submit	-9475
VT	-9476
ulator	-9477
▁instances	-9478
ACHE	-9479
RawPtr	-9480
Connected	-9481
((1	-9482
▁Naive	-9483
Steam	-9484
compiler	-9485
xffff	-9486
61	-9487
▁positions	-9488
▁30,	-9489
▁lambda	-9490
pod	-9491
bat	-9492
uda	-9493
rient	-9494
!{	-9495
]],	-9496
OLL	-9497
▁globals	-9498
▁health	-9499
CreateInfo	-9500
▁uniform	-9501
▁connections	-9502
Pull	-9503
Signer	-9504
TIMEOUT	-9505
▁fixture	-9506
Sim	-9507
32>>	-9508
▁pages	-9509
Messages	-9510
▁compression	-9511
▁Lexer	-9512
ecs	-9513
Mul	-9514
lns	-9515
Claim	-9516
FORMAT	-9517
Automation	-9518
lambda	-9519
Library	-9520
GHT	-9521
rono	-9522
standard	-9523
PP	-9524
▁deg	-9525
olecule	-9526
▁href	-9527
Ord	-9528
▁Pat	-9529
▁precision	-9530
UTE	-9531
▁URI	-9532
Authentication	-9533
peg	-9534
Split	-9535
ital	-9536
Accounts	-9537
ecx	-9538
CMsg	-9539
choice	-9540
leading	-9541
▁FI	-9542
(1))	-9543
▁calls	-9544
migration	-9545
▁met	-9546
▁constraints	-9547
Cost	-9548
LETE	-9549
▁50,	-9550
We	-9551
Pop	-9552
merkle	-9553
Bench	-9554
Macro	-9555
Ts	-9556
▁BinOp	-9557
▁Upd	-9558
▁inside	-9559
xD	-9560
▁linear	-9561
▁Queue	-9562
scratch	-9563
band	-9564
▁units	-9565
▁slash	-9566
▁keyword	-9567
▁signing	-9568
EventType	-9569
▁"1.	-9570
▁(3,	-9571
▁Net	-9572
▁something	-9573
▁Attempt	-9574
views	-9575
▁completed	-9576
FIEL	-9577
IFI	-9578
▁bincode	-9579
▁Step	-9580
generation	-9581
Present	-9582
Creation	-9583
iny	-9584
▁Cmd	-9585
efficients	-9586
64));	-9587
▁implementation	-9588
▁1.,	-9589
terms	-9590
sibling	-9591
](	-9592
Eof	-9593
kw	-9594
Extrinsic	-9595
pings	-9596
▁inform	-9597
seudo	-9598
Subnet	-9599
maximum	-9600
▁ele	-9601
▁deprecated	-9602
Disabled	-9603
▁redis	-9604
diagnostic	-9605
32));	-9606
▁like	-9607
follow	-9608
clamp	-9609
that	-9610
usic	-9611
indexed	-9612
equals	-9613
crc	-9614
Statistics	-9615
('/	-9616
▁Tok	-9617
seen	-9618
TRL	-9619
SM	-9620
▁BLOCK	-9621
Forbidden	-9622
▁Current	-9623
abc	-9624
eat	-9625
0",	-9626
Tick	-9627
flight	-9628
Health	-9629
radient	-9630
▁XML	-9631
ResponseError	-9632
▁ON	-9633
▁sound	-9634
▁versions	-9635
▁activated	-9636
▁Fetch	-9637
▁Route	-9638
▁Top	-9639
▁nix	-9640
▁Wallet	-9641
aystack	-9642
rediction	-9643
inp	-9644
icit	-9645
signatures	-9646
▁alignment	-9647
▁Pair	-9648
DecodeError	-9649
▁Reply	-9650
tribution	-9651
Fi	-9652
▁Role	-9653
hicle	-9654
▁Branch	-9655
ipheral	-9656
SR	-9657
▁aValue	-9658
GT	-9659
)};	-9660
voter	-9661
▁margin	-9662
15,	-9663
▁AL	-9664
▁xmlns	-9665
tv	-9666
-12	-9667
▁Actor	-9668
repeated	-9669
etermine	-9670
▁Scan	-9671
▁buffers	-9672
▁"))))]	-9673
▁handles	-9674
▁resolved	-9675
AMPLE	-9676
hrase	-9677
▁Segment	-9678
generated	-9679
▁deployment	-9680
haviour	-9681
Affine	-9682
Voice	-9683
matching	-9684
▁&[(	-9685
Redis	-9686
roken	-9687
▁Diagnostic	-9688
▁mismatch	-9689
ience	-9690
▁roll	-9691
queries	-9692
unwind	-9693
Factor	-9694
▁sending	-9695
▁what	-9696
goto	-9697
▁diesel	-9698
)].	-9699
▁digits	-9700
uninitialized	-9701
Geometry	-9702
sal	-9703
Slash	-9704
Shell	-9705
Permissions	-9706
scheduler	-9707
etes	-9708
Undefined	-9709
PolicyErrorKind	-9710
SL	-9711
Eth	-9712
Hook	-9713
Disk	-9714
▁arbitrary	-9715
CB	-9716
chronous	-9717
erier	-9718
03,	-9719
POS	-9720
Scroll	-9721
staking	-9722
▁Perform	-9723
lint	-9724
needed	-9725
▁both	-9726
▁LE	-9727
▁Solution	-9728
emu	-9729
Encode	-9730
sf	-9731
Disassociate	-9732
▁standard	-9733
▁Language	-9734
PART	-9735
1)),	-9736
Managed	-9737
Than	-9738
▁equ	-9739
Keyboard	-9740
▁either	-9741
minus	-9742
nft	-9743
STANCE	-9744
3],	-9745
▁Track	-9746
▁pull	-9747
▁sources	-9748
▁solve	-9749
▁srv	-9750
_32	-9751
pem	-9752
▁Layer	-9753
▁routes	-9754
cn	-9755
_11	-9756
aken	-9757
▁lifetime	-9758
aternion	-9759
fft	-9760
ACCOUNT	-9761
statistics	-9762
▁PI	-9763
▁Subscription	-9764
ONT	-9765
▁Main	-9766
▁rename	-9767
▁pol	-9768
restore	-9769
isig	-9770
▁launch	-9771
canonicalize	-9772
▁Environment	-9773
00"	-9774
7);	-9775
16::<	-9776
aming	-9777
▁aggreg	-9778
ipc	-9779
DED	-9780
▁via	-9781
▁lazy	-9782
▁advance	-9783
▁solution	-9784
[1]);	-9785
jk	-9786
▁[_;	-9787
▁_;	-9788
▁Pipeline	-9789
▁commitment	-9790
Opts	-9791
NOW	-9792
▁"2022-0	-9793
TensorHandle	-9794
▁Sim	-9795
Completed	-9796
slices	-9797
mc	-9798
sessions	-9799
6(	-9800
..];	-9801
▁how	-9802
▁negative	-9803
▁piece	-9804
overlapping	-9805
pliance	-9806
alyzer	-9807
chase	-9808
▁built	-9809
ceptor	-9810
▁Verify	-9811
Safe	-9812
(["	-9813
orary	-9814
▁(1.0	-9815
authorities	-9816
Detail	-9817
backward	-9818
▁tt	-9819
porter	-9820
endpoints	-9821
▁Received	-9822
ura	-9823
▁Trace	-9824
(5);	-9825
tack	-9826
TokenType	-9827
4",	-9828
Cli	-9829
putation	-9830
80,	-9831
▁Note	-9832
▁1].	-9833
afx	-9834
FRAME	-9835
▁Dir	-9836
▁repeat	-9837
orer	-9838
<(&	-9839
16(&	-9840
▁tensor	-9841
analysis	-9842
Phone	-9843
▁RwLock	-9844
fails	-9845
▁site	-9846
dma	-9847
▁Lib	-9848
rypted	-9849
deadline	-9850
▁dictionary	-9851
anit	-9852
▁seal	-9853
dup	-9854
recogn	-9855
▁Example	-9856
Workspace	-9857
Editor	-9858
10000	-9859
▁fore	-9860
▁macos	-9861
HW	-9862
.4	-9863
▁managed	-9864
cdsa	-9865
secp	-9866
lists	-9867
udp	-9868
ios	-9869
▁Random	-9870
())?,	-9871
ipherals	-9872
▁allocate	-9873
▁pick	-9874
ians	-9875
Hub	-9876
▁representation	-9877
▁CONFIG	-9878
▁dimensions	-9879
▁MaybeUninit	-9880
Clip	-9881
cstr	-9882
erce	-9883
▁tempfile	-9884
Series	-9885
Dim	-9886
(|_	-9887
▁invoke	-9888
▁Condition	-9889
▁MO	-9890
SERVER	-9891
▁Icon	-9892
▁Count	-9893
Borrow	-9894
▁desired	-9895
▁Fp	-9896
mand	-9897
▁xmmword	-9898
▁gs	-9899
Topic	-9900
Show	-9901
▁BigUint	-9902
▁hostname	-9903
Black	-9904
powi	-9905
plies	-9906
▁evaluate	-9907
datum	-9908
▁500	-9909
IpAddr	-9910
Save	-9911
Rgb	-9912
Tri	-9913
▁handshake	-9914
Setting	-9915
afka	-9916
▁:02	-9917
▁again	-9918
7),	-9919
▁TcpStream	-9920
fac	-9921
anon	-9922
Ciphertext	-9923
▁attach	-9924
izations	-9925
▁initialized	-9926
elems	-9927
▁visited	-9928
Flat	-9929
ayers	-9930
fv	-9931
wk	-9932
Price	-9933
▁chrono	-9934
etion	-9935
▁INT	-9936
PCSTR	-9937
orph	-9938
▁being	-9939
▁strategy	-9940
odies	-9941
ino	-9942
▁unsupported	-9943
-1.	-9944
unlock	-9945
▁consumer	-9946
Unix	-9947
Capacity	-9948
EAM	-9949
▁((*	-9950
Consum	-9951
▁adapter	-9952
xyz	-9953
NI	-9954
Bracket	-9955
▁gm	-9956
▁css	-9957
Theme	-9958
▁Exit	-9959
▁zone	-9960
▁candidates	-9961
CFighterCommon	-9962
Dist	-9963
defaults	-9964
▁extended	-9965
irc	-9966
▁nb	-9967
secure	-9968
▁ValueType	-9969
interaction	-9970
Workflow	-9971
▁live	-9972
▁Named	-9973
▁repr	-9974
▁such	-9975
Camera	-9976
5)	-9977
Commitment	-9978
horizontal	-9979
MI	-9980
ograph	-9981
▁attack	-9982
▁Single	-9983
▁Rest	-9984
EE	-9985
_1:	-9986
!({"	-9987
64().	-9988
▁conv	-9989
▁parents	-9990
Management	-9991
Dom	-9992
math	-9993
(20	-9994
▁xx	-9995
notated	-9996
▁writing	-9997
OptionsError	-9998
▁IpAddr	-9999
▁SET	-10000
▁cam	-10001
deal	-10002
bpf	-10003
▁OP	-10004
ban	-10005
▁transcript	-10006
intersection	-10007
Extended	-10008
locals	-10009
arbitrary	-10010
▁numbers	-10011
(1.	-10012
usb	-10013
))))	-10014
▁IM	-10015
matcher	-10016
NUMBER	-10017
▁Reset	-10018
allocated	-10019
▁frag	-10020
CallInfo	-10021
▁Mult	-10022
pping	-10023
declaration	-10024
Fq	-10025
RCX	-10026
RATE	-10027
0.,	-10028
aged	-10029
capnp	-10030
▁Disable	-10031
={	-10032
71	-10033
!(2,	-10034
magic	-10035
opa	-10036
freeze	-10037
blank	-10038
Exact	-10039
burn	-10040
▁TIME	-10041
Priority	-10042
▁paginator	-10043
▁0)),	-10044
awesome	-10045
computed	-10046
PDF	-10047
Head	-10048
LD	-10049
yre	-10050
▁transmute	-10051
clud	-10052
hwnd	-10053
futures	-10054
Download	-10055
▁decrypt	-10056
.1)	-10057
sized	-10058
specific	-10059
LOC	-10060
▁hdr	-10061
Insufficient	-10062
▁SI	-10063
ARRAY	-10064
rupted	-10065
prog	-10066
▁supports	-10067
packages	-10068
-02	-10069
▁"3	-10070
difficulty	-10071
Fleet	-10072
▁unix	-10073
▁Remote	-10074
▁External	-10075
▁fb	-10076
▁characters	-10077
hold	-10078
fees	-10079
shrink	-10080
▁1000,	-10081
Ymm	-10082
6),	-10083
_0,	-10084
▁authorization	-10085
serv	-10086
64>::	-10087
marks	-10088
▁Report	-10089
sequ	-10090
▁clap	-10091
nowledge	-10092
▁BY	-10093
2)),	-10094
Confirm	-10095
Fail	-10096
▁steps	-10097
gu	-10098
▁Rot	-10099
Behavior	-10100
mq	-10101
Numeric	-10102
tools	-10103
▁iv	-10104
Such	-10105
▁ing	-10106
▁rr	-10107
▁bootstrap	-10108
tm	-10109
▁Func	-10110
Plain	-10111
ONCE	-10112
▁Private	-10113
Transit	-10114
confirmed	-10115
InputStream	-10116
----------------	-10117
▁#(#	-10118
natural	-10119
palette	-10120
carry	-10121
va	-10122
▁cf	-10123
▁2).	-10124
▁df	-10125
▁third	-10126
▁bundle	-10127
ood	-10128
▁NonZero	-10129
▁exchange	-10130
▁medi	-10131
statements	-10132
▁Eth	-10133
▁absol	-10134
▁&[1,	-10135
4()	-10136
Builtin	-10137
DEF	-10138
suite	-10139
▁ic	-10140
▁SO	-10141
})	-10142
matched	-10143
▁datetime	-10144
▁1.0),	-10145
Udp	-10146
ibble	-10147
▁normalize	-10148
▁^=	-10149
bination	-10150
Round	-10151
▁coordinates	-10152
▁sat	-10153
UATION	-10154
gers	-10155
ValueType	-10156
dsa	-10157
▁bell	-10158
Occupied	-10159
256)	-10160
JobErrorKind	-10161
immed	-10162
▁unpack	-10163
proofs	-10164
▁less	-10165
▁destroy	-10166
parallel	-10167
▁DispatchError	-10168
deployment	-10169
Begin	-10170
▁Writer	-10171
_2);	-10172
Offer	-10173
▁Down	-10174
igid	-10175
▁Hasher	-10176
Routing	-10177
▁links	-10178
Cid	-10179
flavor	-10180
Src	-10181
Choice	-10182
ategories	-10183
-01-01	-10184
github	-10185
▁EV	-10186
cluding	-10187
1]	-10188
writable	-10189
fuse	-10190
Activatable	-10191
ays	-10192
▁Dynamic	-10193
DIV	-10194
10_	-10195
▁INIT	-10196
▁TO	-10197
Optional	-10198
outgoing	-10199
OPT	-10200
▁PKG	-10201
uning	-10202
_3_	-10203
plicas	-10204
6);	-10205
▁executable	-10206
equire	-10207
Does	-10208
▁postgres	-10209
((0,	-10210
SILON	-10211
Policies	-10212
CY	-10213
▁plaintext	-10214
liquidity	-10215
STA	-10216
()?),	-10217
yphs	-10218
▁oauth	-10219
▁CC	-10220
ECX	-10221
numeric	-10222
NEG	-10223
▁Pg	-10224
▁RtActivatable	-10225
!(#	-10226
▁visible	-10227
itter	-10228
.7	-10229
▁probe	-10230
▁Sequence	-10231
tester	-10232
▁14,	-10233
▁Transport	-10234
▁pd	-10235
THOD	-10236
nil	-10237
▁Flags	-10238
▁udp	-10239
ResponsePayload	-10240
▁Feature	-10241
ARK	-10242
anc	-10243
iface	-10244
▁four	-10245
=>	-10246
SG	-10247
▁migration	-10248
csr	-10249
Iss	-10250
▁Free	-10251
▁calling	-10252
tu	-10253
aliases	-10254
BadRequest	-10255
illa	-10256
▁ear	-10257
REQ	-10258
rientation	-10259
Ring	-10260
Low	-10261
spacing	-10262
plicated	-10263
▁catch	-10264
difference	-10265
▁overlay	-10266
ORAGE	-10267
vertical	-10268
▁logical	-10269
▁PATH	-10270
turn	-10271
Arrow	-10272
▁CodeAsm	-10273
▁agg	-10274
True	-10275
Crate	-10276
▁near	-10277
Running	-10278
Pad	-10279
projects	-10280
▁challenge	-10281
ngle	-10282
▁Pri	-10283
viewport	-10284
▁ren	-10285
▁DATA	-10286
▁Currency	-10287
isor	-10288
nail	-10289
▁SHARED	-10290
coverage	-10291
▁quick	-10292
Inspect	-10293
ti	-10294
▁mp	-10295
▁Over	-10296
999	-10297
rte	-10298
▁RGB	-10299
▁duplicate	-10300
specs	-10301
hover	-10302
Received	-10303
sep	-10304
**	-10305
▁Full	-10306
▁good	-10307
▁Proof	-10308
▁processor	-10309
[0])	-10310
lookahead	-10311
▁uv	-10312
▁cycle	-10313
DT	-10314
▁Interval	-10315
▁WasmDescribe	-10316
▁Maybe	-10317
Logical	-10318
▁modify	-10319
▁ax	-10320
Rgba	-10321
▁ten	-10322
Requested	-10323
APP	-10324
▁IS	-10325
▁flatbuffers	-10326
fallback	-10327
ised	-10328
▁magic	-10329
▁Vk	-10330
zoom	-10331
etimes	-10332
CString	-10333
▁prog	-10334
rfc	-10335
▁absolute	-10336
aemon	-10337
BlockNumber	-10338
04,	-10339
Consensus	-10340
▁dialog	-10341
Focus	-10342
alyt	-10343
▁tra	-10344
Super	-10345
▁prob	-10346
Replace	-10347
▁ratio	-10348
▁sin	-10349
▁foobar	-10350
▁blockchain	-10351
InUse	-10352
▁unstable	-10353
Pipe	-10354
64>()	-10355
Dev	-10356
▁AWS	-10357
▁Pending	-10358
BinOp	-10359
saved	-10360
Deposit	-10361
errides	-10362
▁wrapped	-10363
affine	-10364
PACK	-10365
|*	-10366
mappings	-10367
64]	-10368
ATURE	-10369
Util	-10370
▁Generator	-10371
immediate	-10372
▁Vm	-10373
▁Physical	-10374
32>>::	-10375
OutputStream	-10376
▁SER	-10377
▁lt	-10378
▁")))	-10379
▁TYPE	-10380
DC	-10381
▁Mat	-10382
▁Drop	-10383
umbnail	-10384
Detection	-10385
sity	-10386
▁Pointer	-10387
▁{};	-10388
Bank	-10389
▁Attr	-10390
BlockHeader	-10391
▁31	-10392
▁64,	-10393
▁655	-10394
▁Builds	-10395
JSON	-10396
itation	-10397
acl	-10398
▁family	-10399
Vm	-10400
hz	-10401
Imp	-10402
Site	-10403
Pur	-10404
SQL	-10405
operands	-10406
SPACE	-10407
istency	-10408
▁MAN	-10409
JS	-10410
▁remainder	-10411
▁assemb	-10412
Diagnostic	-10413
_1__	-10414
▁rep	-10415
Abort	-10416
Naive	-10417
Keep	-10418
txid	-10419
blockhash	-10420
!(<	-10421
Genesis	-10422
retr	-10423
simd	-10424
▁Grid	-10425
32>()	-10426
circle	-10427
▁verification	-10428
▁Setup	-10429
zier	-10430
aud	-10431
reed	-10432
▁Dr	-10433
7)	-10434
▁noise	-10435
mpsc	-10436
(()))	-10437
▁Unsupported	-10438
sem	-10439
dh	-10440
▁FO	-10441
striction	-10442
verification	-10443
isfi	-10444
▁refs	-10445
▁guest	-10446
19,	-10447
▁33	-10448
between	-10449
ierarchy	-10450
▁2));	-10451
locale	-10452
2");	-10453
hard	-10454
hour	-10455
![])	-10456
▁sel	-10457
▁dirs	-10458
▁Place	-10459
stitution	-10460
▁1.0;	-10461
▁uses	-10462
Router	-10463
Apply	-10464
▁middle	-10465
▁projection	-10466
WI	-10467
Created	-10468
ClientError	-10469
▁UInt	-10470
▁Domain	-10471
1>>(	-10472
"))]	-10473
Enter	-10474
TokenKind	-10475
Li	-10476
zM	-10477
Scaling	-10478
ommendation	-10479
1>,	-10480
symlink	-10481
▁activity	-10482
kdf	-10483
▁retrieve	-10484
▁Please	-10485
InputArray	-10486
▁Unix	-10487
redirect	-10488
abeled	-10489
.6	-10490
rational	-10491
▁processing	-10492
theta	-10493
▁Cluster	-10494
▁sector	-10495
▁ATT	-10496
▁rlp	-10497
rlp	-10498
Sto	-10499
1.,	-10500
TagsFor	-10501
celerator	-10502
saf	-10503
▁tip	-10504
▁Handler	-10505
imated	-10506
GroupError	-10507
▁Parsed	-10508
1").	-10509
inct	-10510
▁Algorithm	-10511
▁IF	-10512
▁#).	-10513
Glyph	-10514
there	-10515
▁Extract	-10516
_3()	-10517
▁4.0	-10518
got	-10519
served	-10520
handlers	-10521
culator	-10522
▁working	-10523
DD	-10524
▁1]);	-10525
▁Cons	-10526
NotFoundFault	-10527
Resp	-10528
▁"0.	-10529
Interrupt	-10530
alg	-10531
genitor	-10532
▁seek	-10533
delimiter	-10534
jac	-10535
Primary	-10536
Recovery	-10537
▁BO	-10538
Sk	-10539
▁cm	-10540
nul	-10541
nes	-10542
▁")],	-10543
alty	-10544
cleanup	-10545
▁Metric	-10546
▁5),	-10547
IntoParam	-10548
(<	-10549
▁Rad	-10550
▁Staking	-10551
8>>::	-10552
Ping	-10553
▁needed	-10554
llegal	-10555
quoted	-10556
cks	-10557
▁allocation	-10558
recent	-10559
▁DO	-10560
Thing	-10561
reject	-10562
fds	-10563
▁JS	-10564
needs	-10565
▁compact	-10566
cribed	-10567
▁Section	-10568
routing	-10569
perature	-10570
Period	-10571
ansion	-10572
▁0..10	-10573
▁freq	-10574
ACH	-10575
▁cwd	-10576
WORK	-10577
▁Allow	-10578
ValueRef	-10579
Ind	-10580
ethcontract	-10581
mooth	-10582
▁coin	-10583
▁sets	-10584
verbose	-10585
▁prompt	-10586
Tex	-10587
expiry	-10588
aliased	-10589
▁|_	-10590
▁Modify	-10591
▁Bind	-10592
▁Machine	-10593
![("	-10594
<()>,	-10595
▁exprs	-10596
![[	-10597
steal	-10598
▁OK	-10599
▁waiting	-10600
▁aux	-10601
scaling	-10602
Horizontal	-10603
▁aggregate	-10604
()..	-10605
▁separ	-10606
▁emu	-10607
Front	-10608
DoesNot	-10609
)?))	-10610
▁PRI	-10611
Switch	-10612
salt	-10613
▁Template	-10614
Dns	-10615
Wrong	-10616
progenitor	-10617
(&[1,	-10618
dependency	-10619
Alpha	-10620
▁counts	-10621
▁matched	-10622
>()?	-10623
▁ins	-10624
leton	-10625
ulkan	-10626
EventHandler	-10627
omb	-10628
alyze	-10629
CAgent	-10630
resume	-10631
pane	-10632
Nil	-10633
IONS	-10634
consumer	-10635
▁Worker	-10636
conflict	-10637
emeral	-10638
creator	-10639
general	-10640
dq	-10641
ye	-10642
Sym	-10643
▁TypeId	-10644
▁sr	-10645
▁revision	-10646
secrets	-10647
▁Apply	-10648
ubic	-10649
▁Pack	-10650
5",	-10651
▁FA	-10652
Trie	-10653
yield	-10654
Closure	-10655
sheet	-10656
expired	-10657
▁EventDefinition	-10658
responses	-10659
▁Ne	-10660
▁ctxt	-10661
))).	-10662
highlight	-10663
FileSystem	-10664
CONTROL	-10665
General	-10666
▁Accept	-10667
▁Shader	-10668
64(),	-10669
SELECT	-10670
▁comments	-10671
Power	-10672
authorization	-10673
▁dependency	-10674
HOLD	-10675
▁ls	-10676
MAC	-10677
▁Removes	-10678
mr	-10679
IFT	-10680
gpio	-10681
warp	-10682
HandlerId	-10683
▁validators	-10684
Ids	-10685
▁jobs	-10686
▁registered	-10687
▁cpp	-10688
-0000	-10689
opaque	-10690
▁RUST	-10691
Disable	-10692
▁viewport	-10693
▁catalog	-10694
Artifact	-10695
panel	-10696
▁resolution	-10697
ROOT	-10698
▁Two	-10699
borrowed	-10700
▁Compile	-10701
▁Vote	-10702
eriment	-10703
bos	-10704
SIGN	-10705
▁queries	-10706
human	-10707
▁palette	-10708
Inverse	-10709
ociations	-10710
▁sb	-10711
((),	-10712
▁bellatrix	-10713
001	-10714
persist	-10715
isk	-10716
▁fg	-10717
Install	-10718
▁resize	-10719
▁BlockId	-10720
asing	-10721
▁rom	-10722
Walk	-10723
▁INSERT	-10724
License	-10725
▁secp	-10726
ucceeded	-10727
downgrade	-10728
>>(),	-10729
▁tp	-10730
▁Counter	-10731
isp	-10732
Candidate	-10733
Upgrade	-10734
▁px	-10735
▁3]);	-10736
▁digit	-10737
foreign	-10738
ENABLED	-10739
bra	-10740
Border	-10741
Archive	-10742
templates	-10743
vides	-10744
(()).	-10745
▁happ	-10746
▁graphics	-10747
▁reserve	-10748
neighbor	-10749
stored	-10750
▁subscribe	-10751
▁Ui	-10752
▁sandbox	-10753
▁Ready	-10754
▁TH	-10755
▁flex	-10756
▁dur	-10757
(3)	-10758
actix	-10759
▁Given	-10760
▁ys	-10761
NOWN	-10762
avigation	-10763
shal	-10764
▁receipt	-10765
▁rotate	-10766
itical	-10767
Matcher	-10768
▁"2020	-10769
▁matcher	-10770
▁rdr	-10771
▁keyboard	-10772
▁even	-10773
▁focus	-10774
collision	-10775
Dot	-10776
▁RPC	-10777
apt	-10778
▁&|	-10779
▁hal	-10780
00),	-10781
PF	-10782
counters	-10783
astic	-10784
▁shadow	-10785
-11	-10786
ResponseBody	-10787
_1),	-10788
gap	-10789
▁restore	-10790
▁Make	-10791
ashboard	-10792
More	-10793
celeration	-10794
Bottom	-10795
Detector	-10796
nu	-10797
aes	-10798
workers	-10799
▁interp	-10800
etto	-10801
hooks	-10802
SEC	-10803
stmts	-10804
▁compress	-10805
▁modifier	-10806
▁Permission	-10807
▁enumerated	-10808
derived	-10809
nv	-10810
..],	-10811
Logging	-10812
Vertical	-10813
DEP	-10814
▁placeholder	-10815
camel	-10816
▁nc	-10817
continue	-10818
▁Got	-10819
Sound	-10820
aste	-10821
▁greater	-10822
VR	-10823
ster	-10824
<()>>	-10825
hashed	-10826
6)	-10827
▁weights	-10828
Rendering	-10829
Fs	-10830
Ctrl	-10831
Blocks	-10832
▁wasi	-10833
RST	-10834
▁indexes	-10835
[..]),	-10836
▁RX	-10837
amt	-10838
csv	-10839
Blend	-10840
▁Parses	-10841
Verifier	-10842
▁tv	-10843
▁Registry	-10844
▁graphql	-10845
▁registers	-10846
▁mc	-10847
▁deadline	-10848
oked	-10849
▁Git	-10850
▁argv	-10851
DU	-10852
SRC	-10853
▁sem	-10854
Placement	-10855
BOB	-10856
GORY	-10857
▁4.0,	-10858
▁7);	-10859
▁redirect	-10860
Like	-10861
CLEAN	-10862
filer	-10863
Sampler	-10864
fraction	-10865
▁references	-10866
Paginator	-10867
▁parallel	-10868
![2,	-10869
icted	-10870
▁fallback	-10871
▁molecule	-10872
XY	-10873
▁hub	-10874
getter	-10875
▁distribution	-10876
lon	-10877
hello	-10878
outbound	-10879
▁SignalHandlerId	-10880
sizei	-10881
ENABLE	-10882
Threshold	-10883
ATED	-10884
▁visibility	-10885
Membership	-10886
IDE	-10887
amm	-10888
llvm	-10889
percentage	-10890
▁3.0	-10891
within	-10892
1"),	-10893
())]	-10894
30,	-10895
lastic	-10896
capabilities	-10897
_15	-10898
Let	-10899
▁cells	-10900
orthand	-10901
FC	-10902
ERS	-10903
White	-10904
▁processed	-10905
▁02	-10906
▁Sem	-10907
Gas	-10908
▁pay	-10909
▁Specifies	-10910
▁Consensus	-10911
alytics	-10912
▁boxed	-10913
thes	-10914
▁Seek	-10915
recover	-10916
rcx	-10917
▁BufWriter	-10918
diagnostics	-10919
ros	-10920
00)	-10921
-15	-10922
touch	-10923
ternative	-10924
▁Callback	-10925
▁dropped	-10926
rieves	-10927
▁mutex	-10928
!(::	-10929
0::	-10930
MAN	-10931
sence	-10932
▁Lookup	-10933
TIM	-10934
Tracker	-10935
▁Helper	-10936
ively	-10937
deltas	-10938
11111111	-10939
measure	-10940
kt	-10941
▁Agent	-10942
Capabilities	-10943
▁crc	-10944
SYS	-10945
rtc	-10946
committed	-10947
.8	-10948
▁telemetry	-10949
meter	-10950
Kernel	-10951
▁apis	-10952
polygon	-10953
throw	-10954
▁prot	-10955
pus	-10956
▁Configuration	-10957
MQ	-10958
_25	-10959
▁gate	-10960
▁solver	-10961
stash	-10962
▁Plan	-10963
Book	-10964
trust	-10965
16]	-10966
▁animation	-10967
Perm	-10968
spot	-10969
waiting	-10970
▁phantom	-10971
Seconds	-10972
SITUATION	-10973
xC	-10974
▁tar	-10975
Extract	-10976
▁activation	-10977
▁7)	-10978
▁kill	-10979
formatted	-10980
Drag	-10981
interest	-10982
▁Windows	-10983
▁dd	-10984
▁Hir	-10985
▁Unique	-10986
cpus	-10987
▁Prom	-10988
dialog	-10989
▁PeerId	-10990
Balancer	-10991
▁frequency	-10992
Allowed	-10993
▁INTO	-10994
▁cycles	-10995
▁(**	-10996
histogram	-10997
secondary	-10998
▁│	-10999
irtio	-11000
mv	-11001
▁mapped	-11002
keyboard	-11003
▁Bucky	-11004
farm	-11005
week	-11006
▁ban	-11007
stors	-11008
32>();	-11009
la	-11010
ball	-11011
noise	-11012
▁flatten	-11013
▁ld	-11014
Skip	-11015
FactoryCache	-11016
Idle	-11017
PUB	-11018
▁altair	-11019
35,	-11020
MAND	-11021
mmr	-11022
UNIX	-11023
akers	-11024
▁saved	-11025
inbound	-11026
▁VALUES	-11027
ABEL	-11028
micro	-11029
buy	-11030
▁42,	-11031
▁COL	-11032
ivery	-11033
PK	-11034
▁--	-11035
replication	-11036
▁Snapshot	-11037
OWN	-11038
▁gt	-11039
Void	-11040
Piece	-11041
Scene	-11042
pitch	-11043
strong	-11044
▁Tri	-11045
Login	-11046
fresh	-11047
processing	-11048
▁recent	-11049
Nodes	-11050
mtime	-11051
▁Proxy	-11052
.0[	-11053
▁CR	-11054
OUTPUT	-11055
phanum	-11056
IFEST	-11057
▁farm	-11058
Vi	-11059
▁NS	-11060
BB	-11061
▁Descriptor	-11062
Vari	-11063
volatile	-11064
0,0,	-11065
iters	-11066
GLuint	-11067
styles	-11068
▁Compression	-11069
DISABLED	-11070
2>(	-11071
▁arrow	-11072
terminated	-11073
-04	-11074
Prom	-11075
iguous	-11076
▁couldn	-11077
▁txs	-11078
▁bump	-11079
TEXTURE	-11080
oration	-11081
▁Selection	-11082
▁96	-11083
CATEGORY	-11084
HTTP	-11085
toggle	-11086
disconnect	-11087
Team	-11088
▁Initialize	-11089
iB	-11090
itect	-11091
Receipt	-11092
▁RO	-11093
NoSuch	-11094
Malformed	-11095
versed	-11096
▁Updates	-11097
▁hidden	-11098
1<	-11099
▁indoc	-11100
Repeated	-11101
sResponse	-11102
Quad	-11103
quick	-11104
NAN	-11105
▁ord	-11106
Attach	-11107
ILD	-11108
▁5)	-11109
▁sid	-11110
coeffs	-11111
▁Success	-11112
▁&[19	-11113
argest	-11114
collector	-11115
InvalidArgument	-11116
alach	-11117
ammar	-11118
▁101,	-11119
▁na	-11120
star	-11121
▁led	-11122
CONTEXT	-11123
verted	-11124
▁generation	-11125
▁analysis	-11126
(6,	-11127
filtered	-11128
producer	-11129
::<[	-11130
▁Light	-11131
Wrap	-11132
PeerId	-11133
▁Dummy	-11134
CALL	-11135
Visibility	-11136
Shutdown	-11137
schemars	-11138
TransitGateway	-11139
solid	-11140
▁Skip	-11141
ERY	-11142
alachite	-11143
▁human	-11144
▁IR	-11145
▁Logical	-11146
SystemTime	-11147
quant	-11148
▁collector	-11149
graphics	-11150
xE	-11151
pec	-11152
-4	-11153
▁rl	-11154
▁own	-11155
▁"))?	-11156
▁PRE	-11157
▁turn	-11158
▁normalized	-11159
FieldElement	-11160
grow	-11161
▁1)?;	-11162
managed	-11163
▁blocking	-11164
▁describe	-11165
leave	-11166
Bls	-11167
▁don	-11168
Compute	-11169
▁2",	-11170
▁Det	-11171
▁Cancel	-11172
▁series	-11173
LLVM	-11174
▁PAGE	-11175
▁styles	-11176
desired	-11177
Mac	-11178
▁creator	-11179
▁CLI	-11180
pref	-11181
wrong	-11182
(3).	-11183
▁delegate	-11184
organization	-11185
▁Release	-11186
sampler	-11187
Proc	-11188
▁imports	-11189
▁merkle	-11190
▁MapAccess	-11191
xp	-11192
▁unlock	-11193
limb	-11194
mime	-11195
▁Reads	-11196
Assessment	-11197
▁Progress	-11198
▁configure	-11199
proj	-11200
▁32],	-11201
_2(	-11202
USH	-11203
Methods	-11204
(3));	-11205
▁flash	-11206
CTOR	-11207
▁40,	-11208
▁mime	-11209
▁Plugin	-11210
Vcmp	-11211
▁bridge	-11212
ZNK	-11213
RPC	-11214
▁&**	-11215
HeaderValue	-11216
(15	-11217
dur	-11218
▁Once	-11219
Merkle	-11220
have	-11221
ifted	-11222
▁completion	-11223
VO	-11224
polation	-11225
MPL	-11226
uance	-11227
Ledger	-11228
▁AddressSpace	-11229
▁ttl	-11230
Po	-11231
DA	-11232
▁imm	-11233
recovery	-11234
DF	-11235
('.	-11236
cod	-11237
pause	-11238
mapper	-11239
mis	-11240
)?)?;	-11241
▁typed	-11242
▁applied	-11243
4],	-11244
[3].	-11245
▁rer	-11246
▁Reser	-11247
▁geometry	-11248
▁authentic	-11249
exceeded	-11250
king	-11251
cef	-11252
▁1.5	-11253
▁Trie	-11254
▁void	-11255
Vacant	-11256
dn	-11257
▁successfully	-11258
▁/=	-11259
outcome	-11260
▁waker	-11261
bigint	-11262
GI	-11263
▁Has	-11264
oggle	-11265
▁soft	-11266
bootstrap	-11267
egrity	-11268
▁Poly	-11269
▁exclude	-11270
Answer	-11271
132	-11272
rid	-11273
▁16);	-11274
▁{});	-11275
IMAGE	-11276
solve	-11277
constr	-11278
▁implemented	-11279
([1	-11280
ListResult	-11281
▁Commands	-11282
Market	-11283
umes	-11284
ItemKind	-11285
behavior	-11286
GN	-11287
▁wa	-11288
GIN	-11289
Replica	-11290
▁geo	-11291
Relative	-11292
rq	-11293
oment	-11294
oney	-11295
▁Fq	-11296
Blue	-11297
▁10),	-11298
▁coords	-11299
▁Uniform	-11300
▁measure	-11301
bp	-11302
▁vpc	-11303
Lambda	-11304
▁square	-11305
Rational	-11306
Fore	-11307
loading	-11308
▁most	-11309
▁Standard	-11310
(123	-11311
orical	-11312
▁();	-11313
TL	-11314
Brush	-11315
▁VAR	-11316
▁deserialized	-11317
▁builtin	-11318
executable	-11319
▁1..=	-11320
declare	-11321
Compression	-11322
213	-11323
▁proj	-11324
filled	-11325
envelope	-11326
FLAGS	-11327
evm	-11328
useless	-11329
▁ATTACK	-11330
Sing	-11331
outh	-11332
finity	-11333
▁assum	-11334
Receive	-11335
▁Active	-11336
expiration	-11337
_1(	-11338
Brace	-11339
Allocation	-11340
▁specify	-11341
qq	-11342
▁Ts	-11343
▁Epoch	-11344
Foreign	-11345
Cha	-11346
pix	-11347
Acc	-11348
▁10)	-11349
agate	-11350
coordinates	-11351
▁5.	-11352
▁Cor	-11353
Lifetime	-11354
>);	-11355
_1);	-11356
▁Show	-11357
..(	-11358
ium	-11359
lev	-11360
<(&'	-11361
bstr	-11362
callbacks	-11363
(',	-11364
▁integration	-11365
2.0	-11366
![&	-11367
(0.0	-11368
zmmm	-11369
corner	-11370
powf	-11371
▁otherwise	-11372
▁"))?,	-11373
framebuffer	-11374
aut	-11375
Trust	-11376
redeem	-11377
StartArray	-11378
▁Generates	-11379
!(__	-11380
cbor	-11381
eno	-11382
Retry	-11383
thereum	-11384
predicates	-11385
compat	-11386
Punct	-11387
awner	-11388
▁"]).	-11389
ightly	-11390
▁gid	-11391
anceled	-11392
Annotation	-11393
PWSTR	-11394
Attestation	-11395
▁[(	-11396
Sent	-11397
piped	-11398
0)),	-11399
EndArray	-11400
istretto	-11401
▁tid	-11402
RANGE	-11403
TRACE	-11404
▁reduce	-11405
▁sy	-11406
apis	-11407
consumed	-11408
Require	-11409
▁━	-11410
ConfigError	-11411
▁foreign	-11412
▁trim	-11413
▁spirv	-11414
▁Stat	-11415
()))),	-11416
123456789	-11417
▁Gas	-11418
TcpStream	-11419
Negative	-11420
TreeNode	-11421
hd	-11422
lm	-11423
WebView	-11424
HI	-11425
_1)	-11426
▁gre	-11427
▁rocket	-11428
conditions	-11429
Ob	-11430
LOAT	-11431
perform	-11432
32()?;	-11433
▁Credential	-11434
▁buff	-11435
conditional	-11436
▁EXT	-11437
▁lon	-11438
MemoryOperand	-11439
blk	-11440
▁█	-11441
8",	-11442
quality	-11443
▁fresh	-11444
Restore	-11445
▁SP	-11446
pick	-11447
Total	-11448
Example	-11449
▁merged	-11450
hore	-11451
Support	-11452
vecs	-11453
COMM	-11454
prites	-11455
▁thing	-11456
auction	-11457
latency	-11458
Datum	-11459
▁8];	-11460
▁modifiers	-11461
acted	-11462
infer	-11463
▁ance	-11464
maphore	-11465
mart	-11466
▁insta	-11467
micros	-11468
ryption	-11469
pkt	-11470
▁Encoder	-11471
(){	-11472
▁CPU	-11473
geom	-11474
▁mn	-11475
▁ExecuteMsg	-11476
Mint	-11477
▁were	-11478
▁tol	-11479
::<>::	-11480
Collections	-11481
▁statements	-11482
4().	-11483
▁stable	-11484
▁Decl	-11485
▁docker	-11486
Exchange	-11487
Disconnected	-11488
svg	-11489
OVER	-11490
Gradient	-11491
▁TempDir	-11492
rength	-11493
Jump	-11494
trum	-11495
▁mv	-11496
▁norm	-11497
fallible	-11498
xA	-11499
tery	-11500
Title	-11501
pw	-11502
hal	-11503
▁packages	-11504
9);	-11505
▁Double	-11506
okies	-11507
▁Comm	-11508
▁finalize	-11509
▁5.0,	-11510
ethe	-11511
▁Close	-11512
registered	-11513
ANG	-11514
bosity	-11515
▁Auto	-11516
Stake	-11517
▁filtered	-11518
▁substs	-11519
▁Retrieves	-11520
Day	-11521
DX	-11522
gi	-11523
▁FR	-11524
clap	-11525
usp	-11526
geo	-11527
WHITE	-11528
wit	-11529
lass	-11530
▁paint	-11531
▁signatures	-11532
▁Menu	-11533
BAD	-11534
▁200,	-11535
▁repl	-11536
Est	-11537
fifo	-11538
▁complex	-11539
Percentage	-11540
ClientException	-11541
▁choice	-11542
Terminal	-11543
MAIN	-11544
▁authentication	-11545
▁2.0;	-11546
preview	-11547
PolicyError	-11548
▁nu	-11549
separ	-11550
▁Settings	-11551
▁AST	-11552
atory	-11553
comma	-11554
▁problem	-11555
▁iface	-11556
▁circle	-11557
Minus	-11558
▁"10	-11559
▁nr	-11560
olid	-11561
▁Fut	-11562
▁OpCode	-11563
▁detail	-11564
METHOD	-11565
▁0..=	-11566
▁weak	-11567
effects	-11568
(1.0	-11569
▁guid	-11570
Nonce	-11571
▁irq	-11572
minutes	-11573
stub	-11574
stretch	-11575
▁positive	-11576
▁stash	-11577
SUP	-11578
▁SIZE	-11579
CTRL	-11580
CONNE	-11581
TType	-11582
(1)).	-11583
NonNull	-11584
ssh	-11585
▁clients	-11586
khr	-11587
▁Tls	-11588
3)),	-11589
Parts	-11590
basis	-11591
buff	-11592
hood	-11593
▁Split	-11594
ToTensorHandle	-11595
▁fonts	-11596
etheus	-11597
roundtrip	-11598
WINDOW	-11599
▁...	-11600
aving	-11601
phanumeric	-11602
Sum	-11603
avg	-11604
▁locations	-11605
Gate	-11606
▁projects	-11607
▁MANIFEST	-11608
16),	-11609
RX	-11610
(&[&	-11611
ILED	-11612
SEED	-11613
andpa	-11614
ERT	-11615
DoesNotExist	-11616
trees	-11617
▁dox	-11618
Append	-11619
▁coeff	-11620
ServerError	-11621
wg	-11622
naive	-11623
▁days	-11624
NonZero	-11625
Firewall	-11626
sparse	-11627
▁elf	-11628
▁due	-11629
Sprite	-11630
associated	-11631
▁Handshake	-11632
SETOFF	-11633
▁viewBox	-11634
Limits	-11635
lert	-11636
Inspectable	-11637
CHAN	-11638
SOCK	-11639
urtle	-11640
lwe	-11641
▁buy	-11642
▁128,	-11643
..=0	-11644
STREAM	-11645
Updated	-11646
Rectangle	-11647
▁SecretKey	-11648
[4]	-11649
▁memo	-11650
inclusive	-11651
folio	-11652
AMETER	-11653
▁FileType	-11654
BA	-11655
▁tokenizer	-11656
▁OpenOptions	-11657
▁hour	-11658
helpers	-11659
▁upstream	-11660
▁levels	-11661
Jo	-11662
iff	-11663
STEM	-11664
▁warning	-11665
▁Ole	-11666
iso	-11667
▁Benchmark	-11668
▁SC	-11669
queued	-11670
▁Piece	-11671
CRET	-11672
▁gpu	-11673
▁assignment	-11674
testing	-11675
▁Unsafe	-11676
oles	-11677
▁phys	-11678
fact	-11679
▁Play	-11680
LevelFilter	-11681
▁Same	-11682
Duplicate	-11683
▁MOD	-11684
▁18,	-11685
Encoded	-11686
hereum	-11687
nor	-11688
nullable	-11689
Processing	-11690
iversal	-11691
▁verified	-11692
Dyn	-11693
▁pref	-11694
▁}?;	-11695
contain	-11696
▁velocity	-11697
Bridge	-11698
▁rw	-11699
ural	-11700
▁jsonrpc	-11701
▁Us	-11702
2").	-11703
▁exponent	-11704
Initialize	-11705
▁avg	-11706
Fast	-11707
▁throw	-11708
▁USER	-11709
legacy	-11710
▁-1.0,	-11711
▁Interface	-11712
▁dc	-11713
Delimited	-11714
▁"4	-11715
▁Udp	-11716
▁orders	-11717
iline	-11718
Live	-11719
Completion	-11720
nonoverlapping	-11721
Dig	-11722
OsString	-11723
(8,	-11724
succeed	-11725
▁pw	-11726
▁FOR	-11727
▁Router	-11728
!());	-11729
Either	-11730
▁tm	-11731
Noop	-11732
primitives	-11733
ivial	-11734
signers	-11735
validity	-11736
provision	-11737
beam	-11738
▁Gc	-11739
▁Me	-11740
omaly	-11741
▁Admin	-11742
Parsed	-11743
64>>	-11744
bufs	-11745
PhoneNumber	-11746
visual	-11747
phantom	-11748
stem	-11749
PROTO	-11750
▁Mesh	-11751
▁Side	-11752
anding	-11753
bx	-11754
Revision	-11755
▁happen	-11756
▁2.,	-11757
)}	-11758
▁UPD	-11759
sRequest	-11760
▁DMA	-11761
▁When	-11762
wsz	-11763
HOST	-11764
fuzz	-11765
';	-11766
▁Deps	-11767
nl	-11768
oracle	-11769
Git	-11770
▁100;	-11771
bytecode	-11772
Migration	-11773
REF	-11774
itecture	-11775
▁hold	-11776
Abstract	-11777
After	-11778
▁glob	-11779
LOBAL	-11780
ATTRIB	-11781
Modifiers	-11782
▁Instr	-11783
abr	-11784
imb	-11785
lored	-11786
stamp	-11787
▁&[0,	-11788
stencil	-11789
▁ra	-11790
Master	-11791
pieces	-11792
dictionary	-11793
▁msgs	-11794
▁IW	-11795
ivalent	-11796
▁AV	-11797
'));	-11798
ogn	-11799
▁Flag	-11800
▁ToString	-11801
SB	-11802
▁wx	-11803
odd	-11804
(100);	-11805
▁GLenum	-11806
ZED	-11807
▁Av	-11808
Errors	-11809
▁Export	-11810
▁checks	-11811
Priv	-11812
Delay	-11813
elet	-11814
instantiate	-11815
Multiple	-11816
QuotaExceeded	-11817
▁sf	-11818
Coin	-11819
strs	-11820
(&("	-11821
fbb	-11822
pools	-11823
kp	-11824
192	-11825
TIVE	-11826
rounds	-11827
▁locals	-11828
CLIError	-11829
quota	-11830
MMY	-11831
▁34	-11832
PECTED	-11833
starting	-11834
CACHE	-11835
modulus	-11836
▁17,	-11837
▁blk	-11838
phrase	-11839
licts	-11840
sphrase	-11841
▁codegen	-11842
▁sampler	-11843
▁idle	-11844
▁intern	-11845
estimate	-11846
▁subscriber	-11847
▁cd	-11848
▁Chat	-11849
inuous	-11850
bail	-11851
Score	-11852
▁DELETE	-11853
▁56	-11854
elines	-11855
requires	-11856
iated	-11857
▁35	-11858
LICE	-11859
▁overl	-11860
▁si	-11861
9)	-11862
()]),	-11863
▁jump	-11864
working	-11865
Sparse	-11866
CodedInputStream	-11867
▁═	-11868
▁Info	-11869
payout	-11870
scores	-11871
Capability	-11872
delegation	-11873
IGH	-11874
ited	-11875
▁upd	-11876
8>();	-11877
Dictionary	-11878
▁32)	-11879
gamma	-11880
spend	-11881
.1;	-11882
▁see	-11883
▁android	-11884
drive	-11885
▁fuzz	-11886
▁ignored	-11887
▁identify	-11888
▁configured	-11889
prim	-11890
Click	-11891
▁white	-11892
EXEC	-11893
iases	-11894
▁Peek	-11895
▁tester	-11896
Cy	-11897
▁Argument	-11898
▁fa	-11899
TypeDefinition	-11900
nano	-11901
Unique	-11902
inside	-11903
focused	-11904
AK	-11905
..]	-11906
Flex	-11907
▁aut	-11908
Extra	-11909
roles	-11910
▁dirty	-11911
▁8]	-11912
▁kw	-11913
▁Keypair	-11914
asy	-11915
▁anon	-11916
▁Short	-11917
▁cleanup	-11918
▁Sl	-11919
▁DIS	-11920
▁Linear	-11921
▁Merkle	-11922
ALSE	-11923
▁locale	-11924
▁concrete	-11925
Protection	-11926
Finished	-11927
Unbounded	-11928
False	-11929
▁gradient	-11930
▁PO	-11931
▁"0");	-11932
▁endian	-11933
bias	-11934
32])	-11935
OBJECT	-11936
▁sv	-11937
▁Guest	-11938
issuer	-11939
authentication	-11940
entropy	-11941
▁cho	-11942
DOT	-11943
unicode	-11944
vy	-11945
..])	-11946
▁SQL	-11947
Board	-11948
EPSILON	-11949
▁loading	-11950
▁highlight	-11951
decimals	-11952
modifiers	-11953
orientation	-11954
attle	-11955
▁24,	-11956
python	-11957
arms	-11958
problem	-11959
FileType	-11960
lamports	-11961
▁Computes	-11962
velop	-11963
▁votes	-11964
▁0_	-11965
▁*/	-11966
even	-11967
good	-11968
versal	-11969
▁Logger	-11970
▁Java	-11971
▁lint	-11972
▁Aggregate	-11973
▁fds	-11974
consistent	-11975
▁45	-11976
LOCAL	-11977
▁expires	-11978
▁finalized	-11979
<*	-11980
gossip	-11981
IVector	-11982
lobs	-11983
association	-11984
42,	-11985
▁Form	-11986
▁ResMut	-11987
comparison	-11988
▁oid	-11989
▁servers	-11990
▁dm	-11991
HTML	-11992
▁spi	-11993
▁Beacon	-11994
▁streams	-11995
▁outgoing	-11996
'))	-11997
0.0	-11998
(0)).	-11999
unication	-12000
PROPER	-12001
udget	-12002
▁ut	-12003
SYNC	-12004
▁inverse	-12005
ern	-12006
Warning	-12007
▁elems	-12008
vcmp	-12009
Person	-12010
▁bitcoin	-12011
▁topics	-12012
Resolution	-12013
..]);	-12014
reqwest	-12015
▁Only	-12016
▁layers	-12017
Canvas	-12018
STORAGE	-12019
ography	-12020
Vol	-12021
bitness	-12022
safety	-12023
veloper	-12024
bounding	-12025
▁decoding	-12026
▁Balances	-12027
DP	-12028
Relay	-12029
TypeError	-12030
ENCE	-12031
▁sur	-12032
▁boundary	-12033
aabb	-12034
▁xor	-12035
2.0,	-12036
▁translation	-12037
▁issuer	-12038
NotSupported	-12039
iggers	-12040
▁spans	-12041
hist	-12042
▁0]);	-12043
trail	-12044
▁infer	-12045
XX	-12046
▁aes	-12047
Shard	-12048
ARE	-12049
emes	-12050
▁<&[	-12051
▁obt	-12052
▁registration	-12053
mcu	-12054
▁evt	-12055
▁Digest	-12056
▁contained	-12057
nop	-12058
====	-12059
▁balances	-12060
gdk	-12061
lide	-12062
ENTRY	-12063
▁FPDF	-12064
▁defs	-12065
▁Video	-12066
▁pagination	-12067
Go	-12068
▁Bucket	-12069
multiplier	-12070
▁:08	-12071
white	-12072
(100,	-12073
committee	-12074
64>();	-12075
▁shr	-12076
fence	-12077
applied	-12078
▁License	-12079
pld	-12080
iling	-12081
3(&	-12082
32>().	-12083
▁roots	-12084
▁keystore	-12085
▁way	-12086
▁Heap	-12087
▁burn	-12088
▁captures	-12089
▁Other	-12090
8>(	-12091
sy	-12092
btc	-12093
1_1,	-12094
▁stmts	-12095
Regular	-12096
▁responses	-12097
00;	-12098
based	-12099
claims	-12100
▁Effect	-12101
olate	-12102
▁(4,	-12103
▁enough	-12104
▁mutation	-12105
▁BlockNumber	-12106
▁automatic	-12107
DATE	-12108
▁compiled	-12109
0(&	-12110
▁IX	-12111
[12	-12112
three	-12113
▁fontawesome	-12114
doit	-12115
▁Blob	-12116
▁GenConfig	-12117
interner	-12118
▁AtomicUsize	-12119
atar	-12120
▁MIT	-12121
▁TyCtxt	-12122
Election	-12123
▁actix	-12124
ulf	-12125
▁ControlFlow	-12126
LET	-12127
▁('	-12128
squared	-12129
▁instantiate	-12130
(1024	-12131
Principal	-12132
strate	-12133
3"	-12134
Comma	-12135
utoff	-12136
triangle	-12137
▁Merge	-12138
emap	-12139
SHIFT	-12140
argv	-12141
▁})?,	-12142
▁Axis	-12143
00:00	-12144
▁terms	-12145
▁1_000	-12146
▁patterns	-12147
BS	-12148
▁Binding	-12149
▁yes	-12150
Collector	-12151
▁customer	-12152
partitions	-12153
liver	-12154
checker	-12155
▁crates	-12156
▁diagnostics	-12157
Composition	-12158
LP	-12159
▁vcmp	-12160
▁Retry	-12161
▁Fx	-12162
fingerprint	-12163
OpCode	-12164
inject	-12165
▁Spawn	-12166
Lifecycle	-12167
?)	-12168
FIELD	-12169
scaled	-12170
▁"]),	-12171
Cam	-12172
Boot	-12173
providers	-12174
!("0	-12175
mrb	-12176
▁limits	-12177
frozen	-12178
▁FieldType	-12179
010	-12180
Catalog	-12181
Aes	-12182
▁bon	-12183
▁plot	-12184
▁trailing	-12185
▁Prop	-12186
▁cv	-12187
AtomicBool	-12188
apse	-12189
>>;	-12190
(100),	-12191
▁realm	-12192
▁HeaderValue	-12193
▁starts	-12194
NotReady	-12195
]>,	-12196
▁sd	-12197
▁97,	-12198
Known	-12199
IntoIter	-12200
tour	-12201
streaming	-12202
▁Extended	-12203
_2:	-12204
aco	-12205
▁separator	-12206
LoadBalancer	-12207
▁60,	-12208
▁sell	-12209
Ro	-12210
▁Null	-12211
ROP	-12212
CRYPT	-12213
LM	-12214
exclusive	-12215
Untag	-12216
agnitude	-12217
▁}]	-12218
▁attachment	-12219
Under	-12220
▁Expect	-12221
Contents	-12222
IInspectable	-12223
▁inserted	-12224
oost	-12225
license	-12226
DataSource	-12227
su	-12228
▁solana	-12229
▁staking	-12230
)>)	-12231
_000_000_000	-12232
hours	-12233
polate	-12234
ExprKind	-12235
▁tor	-12236
▁funcs	-12237
▁unicode	-12238
▁interaction	-12239
STRU	-12240
▁SignedRequest	-12241
quantity	-12242
Interaction	-12243
1.5	-12244
ope	-12245
implement	-12246
remainder	-12247
WE	-12248
elong	-12249
PROCESS	-12250
lan	-12251
DN	-12252
ww	-12253
explicit	-12254
principal	-12255
membership	-12256
Witness	-12257
▁outcome	-12258
shred	-12259
▁Safety	-12260
4)),	-12261
widgets	-12262
▁polynomial	-12263
▁Visit	-12264
annotation	-12265
▁defaults	-12266
ARCH	-12267
▁tiles	-12268
▁logging	-12269
ious	-12270
phabet	-12271
▁qed	-12272
▁)?);	-12273
thesisError	-12274
▁OriginFor	-12275
▁replication	-12276
▁Indic	-12277
Ray	-12278
hl	-12279
plications	-12280
promise	-12281
arations	-12282
▁Loop	-12283
▁127.0.0.	-12284
placeholder	-12285
glob	-12286
padded	-12287
Yes	-12288
Grant	-12289
gebra	-12290
▁nil	-12291
rupts	-12292
delivery	-12293
undefined	-12294
▁Artifact	-12295
uset	-12296
▁nft	-12297
[..];	-12298
▁Collections	-12299
64",	-12300
cord	-12301
checks	-12302
▁Names	-12303
neighbors	-12304
▁hashmap	-12305
ValidationError	-12306
▁drag	-12307
▁secs	-12308
GROUP	-12309
inded	-12310
Dummy	-12311
Units	-12312
uspend	-12313
▁Proposal	-12314
textures	-12315
qualified	-12316
plugins	-12317
::<()>	-12318
▁incorrect	-12319
||	-12320
▁consumed	-12321
▁0))	-12322
polynomial	-12323
▁Transition	-12324
detect	-12325
fly	-12326
players	-12327
splat	-12328
undo	-12329
▁120	-12330
▁governance	-12331
31,	-12332
Special	-12333
▁Animation	-12334
<#	-12335
tz	-12336
▁allocated	-12337
▁toggle	-12338
▁(!	-12339
▁10.0,	-12340
JobError	-12341
colour	-12342
FIL	-12343
postgres	-12344
afu	-12345
Devices	-12346
Incomplete	-12347
ulary	-12348
▁statistics	-12349
curren	-12350
▁sgx	-12351
AI	-12352
▁Tests	-12353
_4()	-12354
(10));	-12355
▁"))),	-12356
▁'.	-12357
1))	-12358
Windows	-12359
Approval	-12360
ocabulary	-12361
▁suite	-12362
128),	-12363
▁schem	-12364
trap	-12365
feedback	-12366
▁successful	-12367
workflow	-12368
>:	-12369
▁inject	-12370
RM	-12371
Need	-12372
ancestor	-12373
▁Optional	-12374
34,	-12375
22,	-12376
adget	-12377
illed	-12378
▁grpc	-12379
Linked	-12380
65,	-12381
Dict	-12382
▁ssh	-12383
▁persist	-12384
40,	-12385
▁32);	-12386
7)),	-12387
▁Diff	-12388
▁explicit	-12389
SOURCE	-12390
specifier	-12391
▁alg	-12392
▁comparison	-12393
eph	-12394
Convert	-12395
▁GLint	-12396
adic	-12397
utine	-12398
choose	-12399
shards	-12400
▁vendor	-12401
▁Character	-12402
567	-12403
▁sep	-12404
Waf	-12405
SECON	-12406
▁regions	-12407
(0.5	-12408
▁TLS	-12409
duced	-12410
▁GPIO	-12411
▁ur	-12412
notes	-12413
64>().	-12414
Keyring	-12415
▁1");	-12416
FUNCTION	-12417
▁override	-12418
Feedback	-12419
▁Keyword	-12420
231	-12421
zilla	-12422
fff	-12423
▁Lua	-12424
▁installed	-12425
▁Amount	-12426
macros	-12427
inheritFrom	-12428
▁4096	-12429
▁packets	-12430
ASM	-12431
MAG	-12432
wide	-12433
rease	-12434
▁pix	-12435
▁Jo	-12436
▁uni	-12437
▁gamma	-12438
redis	-12439
DESCRIPT	-12440
SV	-12441
qs	-12442
▁click	-12443
▁lc	-12444
▁currentColor	-12445
▁addrs	-12446
▁oper	-12447
▁READ	-12448
Resize	-12449
75,	-12450
Lex	-12451
Conv	-12452
▁plane	-12453
▁',	-12454
▁bi	-12455
(201	-12456
▁quant	-12457
Scheduled	-12458
directive	-12459
Modification	-12460
icons	-12461
punct	-12462
petition	-12463
barrier	-12464
appings	-12465
▁OS	-12466
aaaaaaaa	-12467
AccountInfo	-12468
2"),	-12469
hide	-12470
oved	-12471
▁anim	-12472
▁chr	-12473
1234567890	-12474
agma	-12475
NegInt	-12476
▁aspect	-12477
▁aligned	-12478
▁!_	-12479
SAFE	-12480
▁pkt	-12481
hashmap	-12482
05,	-12483
16>(	-12484
iscv	-12485
nc	-12486
▁bv	-12487
GRAM	-12488
▁Alice	-12489
▁Relation	-12490
▁Inv	-12491
Exper	-12492
▁simd	-12493
▁printer	-12494
▁pan	-12495
oper	-12496
erase	-12497
iator	-12498
bles	-12499
RUN	-12500
chains	-12501
ContentType	-12502
()};	-12503
▁'-	-12504
THREAD	-12505
SQ	-12506
Sup	-12507
brid	-12508
guest	-12509
▁rerun	-12510
▁Running	-12511
▁tracker	-12512
▁borrowed	-12513
8000	-12514
▁expanded	-12515
subst	-12516
UTerm	-12517
subtree	-12518
assigned	-12519
spent	-12520
▁Complet	-12521
(10)	-12522
▁EVENT	-12523
Spanned	-12524
bars	-12525
cube	-12526
stricted	-12527
Embed	-12528
▁cut	-12529
SAMPLE	-12530
Specifier	-12531
6)),	-12532
▁..)	-12533
Zmm	-12534
▁Provider	-12535
33,	-12536
▁gd	-12537
2")]	-12538
Authentic	-12539
CHANGE	-12540
▁StructVisitor	-12541
topics	-12542
countered	-12543
IconProps	-12544
400	-12545
LABEL	-12546
recognized	-12547
Based	-12548
(7,	-12549
occ	-12550
gency	-12551
spirv	-12552
▁snap	-12553
exports	-12554
MULT	-12555
Green	-12556
(0.,	-12557
Started	-12558
rsa	-12559
▁Policy	-12560
▁"5	-12561
trade	-12562
usion	-12563
))?,	-12564
mnemonic	-12565
▁prover	-12566
<_>>());	-12567
Polynomial	-12568
formats	-12569
1.1	-12570
damage	-12571
Weak	-12572
Maybe	-12573
▁Description	-12574
ValueException	-12575
tys	-12576
0)};	-12577
▁DoitError	-12578
_4_	-12579
▁helpers	-12580
dag	-12581
5)),	-12582
Mount	-12583
▁immediate	-12584
▁buckets	-12585
▁Usage	-12586
▁Inline	-12587
▁Dyn	-12588
▁also	-12589
▁6)	-12590
▁ce	-12591
ulated	-12592
▁intersection	-12593
readed	-12594
▁Cloud	-12595
blocked	-12596
▁bytecode	-12597
PAD	-12598
▁dl	-12599
▁vi	-12600
▁IconProps	-12601
(!	-12602
mmap	-12603
locks	-12604
▁21,	-12605
Pe	-12606
Month	-12607
▁detect	-12608
exclude	-12609
▁rcc	-12610
▁trust	-12611
nf	-12612
▁Dest	-12613
ACCE	-12614
▁1)),	-12615
vendor	-12616
bligation	-12617
Actions	-12618
▁ask	-12619
SERVICE	-12620
Xor	-12621
hot	-12622
▁)],	-12623
▁25,	-12624
▁Starting	-12625
▁GenMode	-12626
▁bx	-12627
▁fib	-12628
▁Dist	-12629
filepath	-12630
greement	-12631
▁checkpoint	-12632
▁Imp	-12633
Cidr	-12634
migrations	-12635
RB	-12636
urls	-12637
_17	-12638
Postgres	-12639
Hit	-12640
tlement	-12641
CPU	-12642
▁fac	-12643
house	-12644
graphql	-12645
▁TIM	-12646
.9	-12647
ensity	-12648
_20	-12649
▁Height	-12650
_01	-12651
")?;	-12652
▁4]);	-12653
lb	-12654
STOP	-12655
▁wake	-12656
MEMORY	-12657
FORMATION	-12658
▁checking	-12659
▁Fragment	-12660
▁temporary	-12661
mods	-12662
Snafu	-12663
Compile	-12664
▁executed	-12665
Cmp	-12666
▁0..(	-12667
▁GLuint	-12668
▁conversion	-12669
]]	-12670
vidence	-12671
InProgress	-12672
URN	-12673
fers	-12674
ATIVE	-12675
KI	-12676
phone	-12677
Escape	-12678
▁cop	-12679
grant	-12680
▁unk	-12681
compiled	-12682
▁Person	-12683
13,	-12684
average	-12685
▁Deletes	-12686
cw	-12687
>>()?;	-12688
given	-12689
ky	-12690
UPT	-12691
0000,	-12692
▁0.00	-12693
800	-12694
▁101	-12695
▁Authorization	-12696
SES	-12697
UNTER	-12698
▁geom	-12699
▁they	-12700
▁Whether	-12701
Fun	-12702
SED	-12703
▁EventType	-12704
()}	-12705
Deploy	-12706
▁clamp	-12707
_14	-12708
cies	-12709
ancellation	-12710
_19	-12711
Incoming	-12712
▁Executor	-12713
▁242,	-12714
Middle	-12715
restart	-12716
▁derived	-12717
linked	-12718
▁haystack	-12719
▁Platform	-12720
▁AB	-12721
Fork	-12722
▁Spanned	-12723
▁secondary	-12724
▁LittleEndian	-12725
EW	-12726
bld	-12727
Pod	-12728
▁Swap	-12729
▁party	-12730
▁approx	-12731
▁definitions	-12732
8:	-12733
▁EC	-12734
▁supplied	-12735
▁leg	-12736
qp	-12737
>>>(	-12738
isoned	-12739
▁goal	-12740
▁Series	-12741
5:	-12742
CLIENT	-12743
iterations	-12744
PARAMETER	-12745
receipts	-12746
::<()	-12747
▁[0.0,	-12748
▁endpoints	-12749
▁Lex	-12750
dropped	-12751
06,	-12752
▁Es	-12753
seeds	-12754
▁PR	-12755
▁")?.	-12756
Parsing	-12757
▁degree	-12758
▁loadfn	-12759
▁Circuit	-12760
documents	-12761
commits	-12762
48,	-12763
▁damage	-12764
▁rendering	-12765
Ecdsa	-12766
ickness	-12767
ignored	-12768
▁Builtin	-12769
Assert	-12770
srv	-12771
▁Bus	-12772
realm	-12773
▁"[..],	-12774
anguages	-12775
announce	-12776
dispatcher	-12777
aos	-12778
Derive	-12779
(':	-12780
▁Deposit	-12781
▁expiration	-12782
authenticated	-12783
Cannot	-12784
voting	-12785
CLO	-12786
Opaque	-12787
unaligned	-12788
▁sections	-12789
Cfg	-12790
▁cloned	-12791
▁hs	-12792
wave	-12793
▁MessageType	-12794
ilar	-12795
▁gossip	-12796
subset	-12797
Console	-12798
parg	-12799
▁SPI	-12800
▁envelope	-12801
ACCESS	-12802
2]	-12803
▁hard	-12804
▁determine	-12805
Lua	-12806
ISTER	-12807
Generate	-12808
curacy	-12809
Polygon	-12810
startup	-12811
▁billing	-12812
browser	-12813
LINK	-12814
rounding	-12815
servation	-12816
Optim	-12817
radians	-12818
warning	-12819
Gpu	-12820
che	-12821
▁etc	-12822
GLenum	-12823
Visual	-12824
domains	-12825
buffered	-12826
▁general	-12827
WeightInfo	-12828
evaluation	-12829
WD	-12830
▁reject	-12831
Constructor	-12832
rf	-12833
▁20);	-12834
Outbound	-12835
egui	-12836
denied	-12837
▁TOKEN	-12838
▁checker	-12839
▁Associate	-12840
▁AsmRegisterYmm	-12841
Star	-12842
▁(((	-12843
▁abcd	-12844
▁java	-12845
▁await	-12846
▁highest	-12847
Fac	-12848
CM	-12849
(4)	-12850
rement	-12851
interp	-12852
sectors	-12853
Scheduler	-12854
styled	-12855
▁recovery	-12856
OutputArray	-12857
StoreError	-12858
BoxBody	-12859
Operations	-12860
NULL	-12861
▁qthis	-12862
terminator	-12863
▁ci	-12864
▁needle	-12865
▁OR	-12866
IDENT	-12867
TLS	-12868
Secp	-12869
umulative	-12870
▁operands	-12871
REC	-12872
▁{})	-12873
TryFrom	-12874
▁Assert	-12875
overflowing	-12876
▁would	-12877
ErrorException	-12878
▁``	-12879
URATION	-12880
BUF	-12881
▁Kernel	-12882
PED	-12883
!(3,	-12884
▁errno	-12885
scripts	-12886
Lower	-12887
Intent	-12888
▁Profile	-12889
▁Obj	-12890
▁svc	-12891
Blake	-12892
▁()>(	-12893
▁computed	-12894
plot	-12895
FOUND	-12896
GLint	-12897
stick	-12898
VirtualMachine	-12899
▁1".	-12900
(5));	-12901
rectangle	-12902
gpm	-12903
ullet	-12904
cow	-12905
dry	-12906
funds	-12907
▁abcde	-12908
cedence	-12909
▁resume	-12910
▁replacement	-12911
FFECT	-12912
buttons	-12913
emitter	-12914
▁warnings	-12915
▁recursive	-12916
▁16;	-12917
Preview	-12918
indic	-12919
solver	-12920
▁Fallible	-12921
eper	-12922
peak	-12923
▁prim	-12924
2>	-12925
SCA	-12926
onal	-12927
▁Tim	-12928
dedup	-12929
▁2]);	-12930
pthread	-12931
Singular	-12932
cpp	-12933
UnknownParameter	-12934
whitelist	-12935
▁Did	-12936
certs	-12937
etailed	-12938
▁Tokens	-12939
▁retval	-12940
▁indexed	-12941
▁Bob	-12942
Sqlite	-12943
▁Curve	-12944
Ratio	-12945
moving	-12946
▁STAT	-12947
▁radix	-12948
caler	-12949
64>>::	-12950
▁Fields	-12951
[1])	-12952
▁24)	-12953
izers	-12954
what	-12955
logged	-12956
summar	-12957
aphore	-12958
▁sparse	-12959
Seg	-12960
uma	-12961
udnn	-12962
▁parg	-12963
dash	-12964
())],	-12965
PhysicalDevice	-12966
hn	-12967
3333	-12968
▁Visibility	-12969
▁micro	-12970
CLASS	-12971
transit	-12972
▁Total	-12973
▁TARGET	-12974
CMD	-12975
▁Sto	-12976
discard	-12977
::#	-12978
bracket	-12979
▁[[	-12980
▁harness	-12981
_100	-12982
▁OPT	-12983
▁inf	-12984
ROW	-12985
intersects	-12986
warnings	-12987
▁bid	-12988
POSIT	-12989
echan	-12990
memo	-12991
Immediate	-12992
expressions	-12993
▁drive	-12994
ality	-12995
▁Structure	-12996
bitcoin	-12997
Integration	-12998
REE	-12999
idon	-13000
)).1,	-13001
▁WS	-13002
▁routing	-13003
▁malachite	-13004
DEPTH	-13005
▁outbound	-13006
▁DNS	-13007
▁takes	-13008
ki	-13009
▁ln	-13010
Reflect	-13011
USD	-13012
iam	-13013
Speed	-13014
nesses	-13015
LED	-13016
Never	-13017
fragments	-13018
5],	-13019
▁INPUT	-13020
Traffic	-13021
▁callee	-13022
CFG	-13023
▁BuckyResult	-13024
aspect	-13025
descriptors	-13026
nz	-13027
attachments	-13028
▁usb	-13029
]];	-13030
Cross	-13031
usable	-13032
GetError	-13033
▁EP	-13034
▁Cipher	-13035
hp	-13036
Cached	-13037
Unicode	-13038
▁Weak	-13039
Refresh	-13040
::<(	-13041
64::<	-13042
0.0,	-13043
▁Rectangle	-13044
Half	-13045
issa	-13046
Would	-13047
steam	-13048
ividual	-13049
▁INVALID	-13050
▁numeric	-13051
mitter	-13052
()`	-13053
ffffffffffffffff	-13054
▁Save	-13055
▁ports	-13056
BinaryOp	-13057
▁ascii	-13058
▁te	-13059
Absolute	-13060
Alt	-13061
_0.	-13062
HeaderMap	-13063
istrar	-13064
▁Walk	-13065
▁Definition	-13066
overwrite	-13067
▁voter	-13068
INVAL	-13069
bloom	-13070
different	-13071
soft	-13072
▁48,	-13073
▁drain	-13074
▁BIT	-13075
▁noop	-13076
3339	-13077
▁mb	-13078
▁provide	-13079
)`	-13080
▁Rational	-13081
repl	-13082
▁histogram	-13083
CREATE	-13084
▁Linked	-13085
ORDER	-13086
Elements	-13087
uce	-13088
▁Editor	-13089
▁dispatcher	-13090
Art	-13091
motion	-13092
ortion	-13093
quorum	-13094
Ignored	-13095
INTERNAL	-13096
TEGER	-13097
ithms	-13098
flash	-13099
Cipher	-13100
Holder	-13101
arbage	-13102
Included	-13103
Tok	-13104
utxos	-13105
scheduled	-13106
▁Ray	-13107
egers	-13108
ording	-13109
▁declaration	-13110
▁16];	-13111
▁Edit	-13112
Arm	-13113
▁Four	-13114
AndProof	-13115
Az	-13116
DMA	-13117
EDX	-13118
▁fin	-13119
(0.0),	-13120
TryInto	-13121
dependent	-13122
▁pv	-13123
▁0];	-13124
BTreeSet	-13125
▁SmallVec	-13126
!(1	-13127
)`.	-13128
▁TryFrom	-13129
▁2.0);	-13130
Entities	-13131
▁occurred	-13132
ialect	-13133
4(&	-13134
▁Surface	-13135
Inclusive	-13136
AAAAAAAA	-13137
nm	-13138
ABI	-13139
Quote	-13140
rewrite	-13141
AU	-13142
tap	-13143
▁fst	-13144
▁retr	-13145
▁Schedule	-13146
uet	-13147
CurrencyId	-13148
▁Called	-13149
▁blend	-13150
Withdraw	-13151
▁Just	-13152
gorithms	-13153
lengths	-13154
▁Manager	-13155
▁ov	-13156
AES	-13157
Vpn	-13158
Else	-13159
▁80,	-13160
CHUNK	-13161
▁[1	-13162
▁Ledger	-13163
BufReader	-13164
ticket	-13165
▁suggest	-13166
▁Dim	-13167
")),	-13168
▁sib	-13169
▁rgba	-13170
▁There	-13171
indirect	-13172
frac	-13173
▁Rgb	-13174
Redirect	-13175
▁producer	-13176
(500	-13177
reload	-13178
lane	-13179
SetErrorKind	-13180
configurations	-13181
▁_):	-13182
ainter	-13183
vectors	-13184
Boundary	-13185
▁inbound	-13186
iki	-13187
▁Parent	-13188
coefficients	-13189
>])	-13190
▁Certificate	-13191
subscriptions	-13192
.2.	-13193
lope	-13194
puter	-13195
▁paren	-13196
Checked	-13197
bare	-13198
>`	-13199
lv	-13200
21,	-13201
discriminant	-13202
ACITY	-13203
upcast	-13204
4<	-13205
▁ADD	-13206
FromWasmAbi	-13207
idents	-13208
2000	-13209
eleton	-13210
iplex	-13211
ourne	-13212
::<(),	-13213
▁Screen	-13214
branches	-13215
8));	-13216
▁country	-13217
Panel	-13218
Entries	-13219
Inventory	-13220
svc	-13221
imator	-13222
▁af	-13223
.1).	-13224
▁Face	-13225
▁dwflags	-13226
dget	-13227
▁tot	-13228
NON	-13229
clicked	-13230
▁OsString	-13231
omes	-13232
▁miner	-13233
called	-13234
▁modulus	-13235
▁Partition	-13236
[8	-13237
PAY	-13238
▁evm	-13239
ORTED	-13240
▁cstr	-13241
tracking	-13242
▁extent	-13243
)>>	-13244
scr	-13245
apic	-13246
VC	-13247
Flush	-13248
returning	-13249
throttling	-13250
▁400	-13251
satisfi	-13252
izz	-13253
RESET	-13254
▁leaves	-13255
Specific	-13256
FFF	-13257
Leader	-13258
Override	-13259
▁auction	-13260
Projection	-13261
▁:0	-13262
delim	-13263
▁polygon	-13264
exhaustive	-13265
tracked	-13266
▁vertical	-13267
intrinsics	-13268
eration	-13269
32:	-13270
TRI	-13271
▁era	-13272
FLOAT	-13273
▁Timeout	-13274
LF	-13275
▁#),	-13276
COMMAND	-13277
_2)	-13278
itted	-13279
▁Category	-13280
RGBA	-13281
Repeat	-13282
edFile	-13283
▁(4	-13284
▁tz	-13285
▁0..3	-13286
_64	-13287
Press	-13288
▁Compiler	-13289
ENO	-13290
▁asc	-13291
propose	-13292
btn	-13293
(2)),	-13294
▁interner	-13295
▁300	-13296
bright	-13297
sqlite	-13298
greater	-13299
INSTANCE	-13300
icing	-13301
▁UPDATE	-13302
MMRegister	-13303
emy	-13304
▁Subs	-13305
budget	-13306
combine	-13307
▁Jump	-13308
▁HO	-13309
▁TC	-13310
▁ram	-13311
antissa	-13312
())?.	-13313
invert	-13314
related	-13315
▁Camera	-13316
Canister	-13317
3".	-13318
krate	-13319
ooser	-13320
▁Tries	-13321
▁22,	-13322
beacon	-13323
Car	-13324
▁Phys	-13325
▁included	-13326
▁converted	-13327
uss	-13328
▁19,	-13329
inality	-13330
EnumWrapper	-13331
shl	-13332
friend	-13333
▁Derive	-13334
▁Limb	-13335
▁Dimension	-13336
12::	-13337
▁Writ	-13338
▁workflow	-13339
SID	-13340
[0]),	-13341
spread	-13342
▁combine	-13343
RepeatedField	-13344
▁works	-13345
clauses	-13346
Mutation	-13347
▁Flat	-13348
▁Mask	-13349
neuron	-13350
▁1024,	-13351
isode	-13352
▁Fork	-13353
Mutable	-13354
Quality	-13355
expanded	-13356
icen	-13357
Validate	-13358
overage	-13359
▁Prefix	-13360
Panic	-13361
Resolved	-13362
StdError	-13363
alert	-13364
visited	-13365
▁krate	-13366
BigUint	-13367
▁Terminal	-13368
POST	-13369
▁xyz	-13370
▁Boxed	-13371
TypeInfo	-13372
controls	-13373
▁ordered	-13374
▁Lwe	-13375
▁aaa	-13376
DEBUG	-13377
parsing	-13378
▁TCP	-13379
▁ETH	-13380
▁strict	-13381
Children	-13382
Rotation	-13383
▁">	-13384
▁Polynomial	-13385
▁10.	-13386
positor	-13387
▁opaque	-13388
▁DecodeError	-13389
Mov	-13390
uge	-13391
Selected	-13392
50,	-13393
▁Dom	-13394
▁"]["	-13395
▁sure	-13396
Printer	-13397
oro	-13398
Committee	-13399
ancellable	-13400
Semi	-13401
QUERY	-13402
supports	-13403
hmac	-13404
IV	-13405
wb	-13406
▁COMP	-13407
highest	-13408
▁PER	-13409
Angle	-13410
▁detected	-13411
INGS	-13412
NodeType	-13413
▁First	-13414
existent	-13415
protocols	-13416
08,	-13417
9),	-13418
▁CUR	-13419
RIGHT	-13420
){	-13421
Rsa	-13422
flip	-13423
▁WorkModule	-13424
2020	-13425
midi	-13426
▁Card	-13427
▁oracle	-13428
5;	-13429
FP	-13430
stringify	-13431
▁0..4	-13432
substs	-13433
▁bstr	-13434
Assemb	-13435
TokenTree	-13436
nable	-13437
▁Pass	-13438
persistent	-13439
png	-13440
attempt	-13441
▁tenant	-13442
▁batches	-13443
snap	-13444
implify	-13445
▁linked	-13446
bsd	-13447
▁horizontal	-13448
1>(	-13449
▁grant	-13450
Stencil	-13451
▁aliases	-13452
▁..}	-13453
skill	-13454
▁TEXT	-13455
▁dims	-13456
▁Crate	-13457
closing	-13458
▁12);	-13459
▁Sparse	-13460
▁adding	-13461
ordering	-13462
reat	-13463
charge	-13464
▁exhaustive	-13465
fnm	-13466
▁hm	-13467
▁usr	-13468
00000	-13469
While	-13470
TON	-13471
PullRequest	-13472
CLEAR	-13473
Reverse	-13474
heartbeat	-13475
▁Limit	-13476
enclave	-13477
uni	-13478
ancy	-13479
slab	-13480
▁Sprite	-13481
▁Arrow	-13482
▁liquid	-13483
REEN	-13484
Cause	-13485
▁STATE	-13486
Imm	-13487
fst	-13488
▁pem	-13489
CHAIN	-13490
miner	-13491
▁rustls	-13492
▁quantity	-13493
▁symlink	-13494
600	-13495
▁BASE	-13496
tokenizer	-13497
effective	-13498
▁leading	-13499
Delivery	-13500
▁neighbor	-13501
▁Notification	-13502
dpi	-13503
▁band	-13504
▁Codec	-13505
▁Delay	-13506
▁Runner	-13507
▁creates	-13508
tos	-13509
▁closest	-13510
Motion	-13511
▁subcommand	-13512
-3	-13513
▁rewrite	-13514
validated	-13515
kvm	-13516
Members	-13517
grammar	-13518
▁rectangle	-13519
▁calcul	-13520
▁QU	-13521
inspect	-13522
▁classes	-13523
protected	-13524
Framebuffer	-13525
country	-13526
loan	-13527
FACE	-13528
goal	-13529
72,	-13530
▁ft	-13531
▁"7	-13532
rome	-13533
Ascii	-13534
▁promise	-13535
Evaluation	-13536
octets	-13537
tracks	-13538
▁websocket	-13539
erialization	-13540
▁BE	-13541
▁RUN	-13542
TypeRef	-13543
virt	-13544
staked	-13545
▁Mac	-13546
STAMP	-13547
Browser	-13548
hole	-13549
▁sessions	-13550
(|&(	-13551
▁strs	-13552
▁Calls	-13553
▁PAR	-13554
coins	-13555
▁raft	-13556
Consumer	-13557
▁protobuf	-13558
arwin	-13559
Scoped	-13560
▁authorities	-13561
Late	-13562
prove	-13563
(&**	-13564
apps	-13565
▁vc	-13566
▁Wrapping	-13567
chip	-13568
avity	-13569
▁Left	-13570
▁reach	-13571
▁Vari	-13572
▁Capture	-13573
23,	-13574
▁Rate	-13575
Guest	-13576
slow	-13577
▁scr	-13578
rtt	-13579
▁joint	-13580
▁7;	-13581
Help	-13582
▁framebuffer	-13583
▁BalanceOf	-13584
▁hot	-13585
energy	-13586
Compact	-13587
bor	-13588
▁fx	-13589
java	-13590
libb	-13591
▁crash	-13592
▁capabilities	-13593
ACTOR	-13594
libbb	-13595
inventory	-13596
hy	-13597
▁writes	-13598
▁opening	-13599
▁INFO	-13600
▁fact	-13601
FILTER	-13602
▁241,	-13603
▁Receive	-13604
Gt	-13605
▁Union	-13606
Waiting	-13607
signals	-13608
INFORMATION	-13609
ili	-13610
POOL	-13611
▁backtrace	-13612
▁Resolve	-13613
EXTEN	-13614
▁boma	-13615
LING	-13616
▁5];	-13617
ons	-13618
replicas	-13619
500	-13620
66,	-13621
RESHOLD	-13622
▁intersect	-13623
▁ParseStream	-13624
uations	-13625
▁fraction	-13626
traffic	-13627
lsl	-13628
mass	-13629
▁Retrieve	-13630
▁Ind	-13631
▁touch	-13632
Limb	-13633
decls	-13634
liquid	-13635
▁Compare	-13636
_34	-13637
2<::	-13638
▁sse	-13639
warded	-13640
policies	-13641
statuses	-13642
▁ai	-13643
▁Too	-13644
:0	-13645
▁Bitmap	-13646
alo	-13647
prng	-13648
redraw	-13649
▁shares	-13650
pkcs	-13651
▁23,	-13652
▁gfx	-13653
expires	-13654
▁publisher	-13655
▁expressions	-13656
▁Outcome	-13657
alternate	-13658
8>((&	-13659
▁slog	-13660
▁proper	-13661
▁Unsigned	-13662
▁NV	-13663
Checker	-13664
),*	-13665
anga	-13666
▁Div	-13667
▁31,	-13668
▁fails	-13669
(60	-13670
ONG	-13671
PASS	-13672
▁far	-13673
▁_>()	-13674
swapchain	-13675
Nested	-13676
fici	-13677
tunnel	-13678
▁cw	-13679
▁arity	-13680
AssetId	-13681
snippet	-13682
▁building	-13683
inity	-13684
▁regular	-13685
▁mand	-13686
▁acquire	-13687
SendError	-13688
▁validity	-13689
HO	-13690
agre	-13691
▁0.0],	-13692
14,	-13693
BLACK	-13694
▁1.0)	-13695
denominator	-13696
▁Parameters	-13697
▁Directory	-13698
Always	-13699
RecvError	-13700
▁floating	-13701
((1,	-13702
▁visual	-13703
▁01	-13704
▁tb	-13705
Shadow	-13706
kely	-13707
▁Quad	-13708
Slashing	-13709
succeeds	-13710
acmd	-13711
bill	-13712
Hyper	-13713
▁FieldElement	-13714
want	-13715
▁(0.	-13716
hints	-13717
▁iterations	-13718
SecurityGroup	-13719
notifications	-13720
hosts	-13721
▁theta	-13722
▁migrate	-13723
▁tokenize	-13724
dro	-13725
cidr	-13726
▁delimiter	-13727
RTC	-13728
DIRECT	-13729
▁runs	-13730
msat	-13731
▁Tool	-13732
__,	-13733
Reward	-13734
▁logic	-13735
ooth	-13736
flate	-13737
▁START	-13738
bbox	-13739
▁hmac	-13740
Equals	-13741
numerator	-13742
▁terminated	-13743
wl	-13744
ulo	-13745
▁mods	-13746
Ssl	-13747
rex	-13748
PARAMS	-13749
VersionErrorKind	-13750
ann	-13751
▁alert	-13752
successful	-13753
ano	-13754
iro	-13755
▁And	-13756
}),	-13757
▁triangle	-13758
ably	-13759
▁colour	-13760
▁secrets	-13761
community	-13762
▁')	-13763
64());	-13764
▁browser	-13765
Audit	-13766
Resolve	-13767
uetooth	-13768
unreachable	-13769
10);	-13770
▁'_>,	-13771
▁rent	-13772
COD	-13773
ANTS	-13774
▁Oid	-13775
▁Utf	-13776
osmos	-13777
▁TyKind	-13778
plicable	-13779
▁according	-13780
("127.0.0.1:	-13781
Pas	-13782
(&[1	-13783
XML	-13784
▁BL	-13785
ounty	-13786
eo	-13787
▁@{	-13788
concurrent	-13789
.2,	-13790
dfs	-13791
summaries	-13792
hits	-13793
▁Last	-13794
LengthDelimited	-13795
▁-1.	-13796
![3,	-13797
fname	-13798
Prot	-13799
▁ttf	-13800
Stored	-13801
▁Right	-13802
▁"1.0.0	-13803
4;	-13804
[2]);	-13805
increase	-13806
Maintenance	-13807
Reject	-13808
1024	-13809
online	-13810
Through	-13811
▁clocks	-13812
)->	-13813
quit	-13814
▁bounded	-13815
contracts	-13816
▁assertion	-13817
MOV	-13818
▁FT	-13819
Directive	-13820
\0\0	-13821
▁Seed	-13822
▁Attempts	-13823
▁wave	-13824
merged	-13825
▁ParserError	-13826
▁HT	-13827
▁8),	-13828
Overlay	-13829
txo	-13830
▁12.	-13831
ecessor	-13832
▁Information	-13833
prox	-13834
ucmd	-13835
lover	-13836
Pact	-13837
▁still	-13838
Defined	-13839
Pid	-13840
▁Collect	-13841
▁IDebug	-13842
▁NP	-13843
▁fees	-13844
agation	-13845
insertion	-13846
OIN	-13847
modes	-13848
▁GE	-13849
Lines	-13850
rotli	-13851
arer	-13852
uber	-13853
▁uart	-13854
▁mapper	-13855
issuance	-13856
eterministic	-13857
0>,	-13858
past	-13859
▁Space	-13860
▁phi	-13861
▁minute	-13862
ByteArray	-13863
▁pip	-13864
▁belong	-13865
('-	-13866
cash	-13867
▁icons	-13868
▁filesystem	-13869
MAGIC	-13870
▁Must	-13871
▁bufs	-13872
Accessor	-13873
▁getting	-13874
Conversation	-13875
▁spot	-13876
WouldBlock	-13877
topology	-13878
arant	-13879
▁collateral	-13880
(..))	-13881
Destroy	-13882
agreement	-13883
▁disconnect	-13884
VF	-13885
AMO	-13886
sigma	-13887
▁bp	-13888
▁recover	-13889
qr	-13890
▁stopped	-13891
igar	-13892
▁deal	-13893
Elastic	-13894
discovery	-13895
allenges	-13896
▁1_	-13897
Compiler	-13898
5).	-13899
▁(3	-13900
sockaddr	-13901
▁truncate	-13902
Constraints	-13903
▁charset	-13904
▁expired	-13905
AIL	-13906
▁Comment	-13907
▁Align	-13908
descend	-13909
▁Shard	-13910
Spot	-13911
creds	-13912
▁maps	-13913
▁cfail	-13914
▁configs	-13915
Caps	-13916
▁Wrong	-13917
▁TokenTree	-13918
▁IT	-13919
Delegate	-13920
rollers	-13921
traction	-13922
▁uniquely	-13923
▁ecs	-13924
▁fit	-13925
▁gdk	-13926
levant	-13927
▁NonZeroU	-13928
▁directly	-13929
zm	-13930
▁#(	-13931
▁ONE	-13932
HWND	-13933
boxes	-13934
brush	-13935
▁star	-13936
DBCluster	-13937
1")	-13938
ofs	-13939
])),	-13940
▁WebSocket	-13941
SSL	-13942
ales	-13943
ercise	-13944
para	-13945
callee	-13946
▁bounding	-13947
Equ	-13948
sphere	-13949
▁ALICE	-13950
Envelope	-13951
pointers	-13952
IDX	-13953
▁compatible	-13954
▁WR	-13955
Activation	-13956
Lt	-13957
rottled	-13958
▁discriminant	-13959
▁0..100	-13960
▁SynthesisError	-13961
[4],	-13962
reveal	-13963
▁Disassociate	-13964
▁ta	-13965
DOWN	-13966
▁Pop	-13967
imported	-13968
▁roundtrip	-13969
▁Exception	-13970
characters	-13971
Errno	-13972
▁legacy	-13973
ToString	-13974
ilestone	-13975
▁Authority	-13976
CRYP	-13977
▁winapi	-13978
ablished	-13979
▁Namespace	-13980
▁0)?;	-13981
riends	-13982
ingError	-13983
▁namespaces	-13984
UTTON	-13985
▁shuffle	-13986
>(_	-13987
Generation	-13988
▁lin	-13989
▁train	-13990
mismatch	-13991
)..	-13992
!())	-13993
Just	-13994
▁Watch	-13995
(100));	-13996
Extern	-13997
▁lab	-13998
▁pdf	-13999
obile	-14000
▁cube	-14001
▁getter	-14002
(32	-14003
▁(&'	-14004
SCRIPT	-14005
▁Lists	-14006
▁ke	-14007
▁lease	-14008
milliseconds	-14009
alone	-14010
ENDING	-14011
▁moves	-14012
▁annotation	-14013
▁barrier	-14014
▁Uri	-14015
eras	-14016
reqs	-14017
▁XmlParseError	-14018
▁amt	-14019
17,	-14020
Unwind	-14021
▁Team	-14022
`],	-14023
▁indicates	-14024
Endpoints	-14025
▁>>=	-14026
proposals	-14027
▁pm	-14028
otion	-14029
▁Indicates	-14030
337	-14031
edic	-14032
errain	-14033
Deleted	-14034
▁choose	-14035
pawn	-14036
▁Rew	-14037
PY	-14038
Calc	-14039
limited	-14040
Generated	-14041
▁streaming	-14042
TURN	-14043
▁mmap	-14044
masked	-14045
234	-14046
[5]	-14047
Cred	-14048
▁COM	-14049
▁TAG	-14050
▁Scene	-14051
▁ssl	-14052
coordinate	-14053
NOR	-14054
Bulk	-14055
▁Iss	-14056
12_3	-14057
Conditional	-14058
accepted	-14059
printer	-14060
▁:1	-14061
capability	-14062
▁gz	-14063
Locked	-14064
▁Material	-14065
Orientation	-14066
▁Abi	-14067
▁loss	-14068
▁Canvas	-14069
STRNEWLINE	-14070
integration	-14071
Home	-14072
train	-14073
presen	-14074
▁above	-14075
credit	-14076
▁ol	-14077
ATIONS	-14078
Legacy	-14079
▁Scroll	-14080
▁combined	-14081
▁scopes	-14082
▁including	-14083
usd	-14084
▁txid	-14085
ponder	-14086
POW	-14087
▁COUNT	-14088
▁software	-14089
▁Authentication	-14090
▁wit	-14091
oneshot	-14092
multiply	-14093
▁Rafx	-14094
▁article	-14095
▁NE	-14096
▁-1;	-14097
Toggle	-14098
fmadd	-14099
LEMENT	-14100
FONT	-14101
availability	-14102
ONLY	-14103
▁")(	-14104
▁documents	-14105
▁TcpListener	-14106
interfaces	-14107
[9	-14108
▁Fill	-14109
Concurrent	-14110
DEN	-14111
shapes	-14112
amilies	-14113
▁avx	-14114
markdown	-14115
ListTagsFor	-14116
▁coordinate	-14117
▁collections	-14118
yy	-14119
fonts	-14120
▁week	-14121
oreography	-14122
detach	-14123
election	-14124
▁KeyPair	-14125
1305	-14126
nav	-14127
▁6),	-14128
▁restart	-14129
Changeset	-14130
Catch	-14131
.0.0.0	-14132
Mix	-14133
▁BoxFuture	-14134
44,	-14135
▁LOCK	-14136
▁General	-14137
▁potential	-14138
Css	-14139
replay	-14140
▁sigma	-14141
Unnamed	-14142
Unspecified	-14143
LC	-14144
nx	-14145
?);	-14146
▁vir	-14147
Recur	-14148
VertexAttrib	-14149
PTR	-14150
▁hooks	-14151
Problem	-14152
SPI	-14153
▁fc	-14154
▁floor	-14155
stitute	-14156
uncompressed	-14157
preset	-14158
AtomicUsize	-14159
Colon	-14160
▁Vault	-14161
▁dma	-14162
Invoke	-14163
▁Square	-14164
(6),	-14165
▁slab	-14166
▁Calcul	-14167
bm	-14168
semi	-14169
unset	-14170
allest	-14171
▁whole	-14172
todo	-14173
▁cbor	-14174
KeyType	-14175
128;	-14176
▁lsp	-14177
Insights	-14178
Components	-14179
▁HttpRequest	-14180
!(?	-14181
Ve	-14182
tokenize	-14183
footer	-14184
▁6.	-14185
▁criterion	-14186
STO	-14187
anitize	-14188
▁dro	-14189
▁nth	-14190
▁INTER	-14191
implicit	-14192
▁watcher	-14193
Availability	-14194
II	-14195
▁EMPTY	-14196
16.	-14197
sigs	-14198
▁Ctx	-14199
▁natural	-14200
▁00:	-14201
▁cls	-14202
posure	-14203
▁Assign	-14204
▁See	-14205
Hello	-14206
TEX	-14207
▁iteration	-14208
Characteristics	-14209
102,	-14210
▁0.1,	-14211
Compare	-14212
5::	-14213
Spawn	-14214
chrono	-14215
▁templates	-14216
'.	-14217
▁True	-14218
sandbox	-14219
▁codes	-14220
▁Conversation	-14221
▁sqrt	-14222
_3,	-14223
Added	-14224
alarm	-14225
Software	-14226
spective	-14227
▁NodeType	-14228
JK	-14229
▁RTD	-14230
IALI	-14231
▁Finish	-14232
sai	-14233
TIES	-14234
▁blank	-14235
Projective	-14236
aga	-14237
combin	-14238
▁secure	-14239
▁QueryMsg	-14240
264	-14241
GENER	-14242
gnoring	-14243
▁Scale	-14244
▁hover	-14245
ups	-14246
▁TS	-14247
▁eyre	-14248
▁difference	-14249
▁air	-14250
▁bpf	-14251
160::	-14252
ASSET	-14253
▁roles	-14254
▁directive	-14255
▁CurrencyId	-14256
Force	-14257
▁Generated	-14258
specification	-14259
ucet	-14260
▁aabb	-14261
▁blake	-14262
▁dh	-14263
filing	-14264
▁python	-14265
▁Trigger	-14266
("2	-14267
99,	-14268
(1234	-14269
backtrace	-14270
(5)	-14271
ABB	-14272
minute	-14273
Objects	-14274
enqueue	-14275
Oct	-14276
1[	-14277
Gc	-14278
▁para	-14279
▁effects	-14280
▁NaiveDate	-14281
obl	-14282
Provisioned	-14283
ortex	-14284
▁Decom	-14285
Campaign	-14286
32(),	-14287
▁ball	-14288
ularity	-14289
▁REGION	-14290
Inference	-14291
respond	-14292
▁snippet	-14293
▁hwnd	-14294
▁cover	-14295
▁counters	-14296
64)),	-14297
15_	-14298
64])	-14299
iding	-14300
olo	-14301
▁hw	-14302
lifi	-14303
pinned	-14304
▁Changes	-14305
▁ClientError	-14306
ICS	-14307
hib	-14308
▁160	-14309
rollment	-14310
Profiles	-14311
ENV	-14312
▁mt	-14313
.0],	-14314
Positive	-14315
hind	-14316
prod	-14317
▁datum	-14318
▁fault	-14319
cribers	-14320
KeyValue	-14321
Violation	-14322
multicast	-14323
cracy	-14324
atlas	-14325
▁ValueRef	-14326
Hz	-14327
▁Payment	-14328
GS	-14329
grab	-14330
coerce	-14331
Compiled	-14332
TooLarge	-14333
.#	-14334
▁(5,	-14335
stores	-14336
Buffers	-14337
annotations	-14338
Fmt	-14339
impls	-14340
angular	-14341
▁Endian	-14342
▁against	-14343
echanism	-14344
DNS	-14345
.1),	-14346
Nothing	-14347
watcher	-14348
▁average	-14349
8]>)	-14350
SYSTEM	-14351
avail	-14352
▁Creating	-14353
StateFault	-14354
▁})))	-14355
Palette	-14356
ommendations	-14357
Rx	-14358
pivot	-14359
tabs	-14360
letter	-14361
▁Power	-14362
Inbound	-14363
BY	-14364
Ec	-14365
(4).	-14366
plug	-14367
▁9);	-14368
tar	-14369
▁pf	-14370
▁1000;	-14371
retries	-14372
invocation	-14373
▁documentation	-14374
anity	-14375
Commands	-14376
ingState	-14377
▁players	-14378
▁Rep	-14379
▁slices	-14380
customer	-14381
▁Contact	-14382
iteration	-14383
▁su	-14384
Alert	-14385
Geo	-14386
▁Phase	-14387
8(0	-14388
RUPT	-14389
▁AN	-14390
▁FLAG	-14391
layouts	-14392
▁ag	-14393
orded	-14394
penalty	-14395
CAPACITY	-14396
▁minutes	-14397
▁224	-14398
backoff	-14399
enefici	-14400
contexts	-14401
preferred	-14402
igher	-14403
Square	-14404
'0'	-14405
(&[],	-14406
mixed	-14407
lw	-14408
eos	-14409
uty	-14410
compound	-14411
Gst	-14412
(&[0,	-14413
lifetimes	-14414
▁Go	-14415
Cond	-14416
vcpu	-14417
datas	-14418
evals	-14419
wildcard	-14420
serialization	-14421
TW	-14422
▁#![	-14423
▁dog	-14424
▁grammar	-14425
prune	-14426
▁Repo	-14427
6000	-14428
smart	-14429
passes	-14430
ubernet	-14431
▁emitter	-14432
ubernetes	-14433
▁committed	-14434
▁Mir	-14435
Quant	-14436
fatal	-14437
DW	-14438
300	-14439
Prec	-14440
▁Services	-14441
Oid	-14442
▁nt	-14443
▁DOT	-14444
▁FUN	-14445
Unsafe	-14446
stacks	-14447
▁escaped	-14448
▁quit	-14449
Partner	-14450
▁corner	-14451
▁activate	-14452
▁aarch	-14453
plicability	-14454
▁pitch	-14455
▁related	-14456
▁Hex	-14457
▁42);	-14458
apling	-14459
detection	-14460
▁assigned	-14461
▁tf	-14462
uart	-14463
Utils	-14464
▁Branching	-14465
wap	-14466
ising	-14467
tagged	-14468
Plane	-14469
txns	-14470
▁JsonValue	-14471
▁32]);	-14472
VoiceConnector	-14473
▁6;	-14474
ansi	-14475
marshal	-14476
baseline	-14477
[0]).	-14478
▁inventory	-14479
[10	-14480
CHEMA	-14481
Stroke	-14482
Iam	-14483
▁CResult	-14484
(50	-14485
sched	-14486
Damage	-14487
▁Market	-14488
▁AT	-14489
▁erase	-14490
Triangle	-14491
▁taken	-14492
edx	-14493
criteria	-14494
▁particle	-14495
2>,	-14496
▁SW	-14497
rstest	-14498
▁Godot	-14499
variance	-14500
changeset	-14501
Svg	-14502
BOUND	-14503
STACK	-14504
cksdb	-14505
▁please	-14506
64:	-14507
ingRule	-14508
▁1000);	-14509
▁Scheduler	-14510
assignments	-14511
▁pins	-14512
0.0.	-14513
▁modrm	-14514
56,	-14515
▁Enter	-14516
▁Genesis	-14517
▁Art	-14518
ingKey	-14519
isma	-14520
Datagram	-14521
▁Gpu	-14522
ersen	-14523
Composite	-14524
Txn	-14525
Warn	-14526
)?)),	-14527
()[0].	-14528
decompress	-14529
_000);	-14530
▁Attack	-14531
FieldType	-14532
urer	-14533
gestion	-14534
▁Selector	-14535
peech	-14536
ParamSpec	-14537
Cpp	-14538
album	-14539
BIN	-14540
▁clippy	-14541
clusters	-14542
ConfigErrorKind	-14543
well	-14544
QCLEAN	-14545
RuntimeError	-14546
accumulator	-14547
▁dash	-14548
notifier	-14549
▁interest	-14550
6",	-14551
movement	-14552
▁stub	-14553
paused	-14554
▁except	-14555
Rev	-14556
▁Borrowed	-14557
rp	-14558
VAR	-14559
Week	-14560
ratic	-14561
2!(	-14562
_24	-14563
▁SA	-14564
▁"12	-14565
ceded	-14566
▁posts	-14567
ingress	-14568
overlap	-14569
SLO	-14570
ndo	-14571
FAIL	-14572
aterm	-14573
InvalidState	-14574
▁lens	-14575
lium	-14576
Issue	-14577
▁Validate	-14578
ynchronous	-14579
▁```	-14580
(10).	-14581
▁Done	-14582
▁little	-14583
DIO	-14584
Anon	-14585
")))]	-14586
16>>::	-14587
passed	-14588
▁claims	-14589
composite	-14590
ically	-14591
▁flip	-14592
UnknownValue	-14593
Lang	-14594
closest	-14595
andalone	-14596
econ	-14597
▁IC	-14598
Stopped	-14599
PROTOCOL	-14600
keystore	-14601
▁interpreter	-14602
PB	-14603
oke	-14604
'..=	-14605
EF	-14606
hai	-14607
▁3));	-14608
Locale	-14609
▁pname	-14610
▁dag	-14611
ecdsa	-14612
timezone	-14613
Cycle	-14614
Stable	-14615
▁handlers	-14616
▁ColumnType	-14617
bian	-14618
▁experiment	-14619
die	-14620
▁');	-14621
Distance	-14622
▁Repository	-14623
dv	-14624
fq	-14625
jit	-14626
▁Li	-14627
[2];	-14628
inesis	-14629
PACKET	-14630
scoped	-14631
POffset	-14632
Disconnect	-14633
Associations	-14634
rdr	-14635
rored	-14636
Ignore	-14637
▁structs	-14638
Secondary	-14639
▁BinaryOp	-14640
-1,	-14641
16).	-14642
approval	-14643
ctr	-14644
lie	-14645
vie	-14646
.0)),	-14647
issor	-14648
dense	-14649
automatic	-14650
▁delivery	-14651
▁ml	-14652
flatbuffers	-14653
GEX	-14654
▁chaos	-14655
publisher	-14656
pear	-14657
iders	-14658
▁Implement	-14659
512::	-14660
▁Managed	-14661
DESCRIPTOR	-14662
Boxed	-14663
▁Human	-14664
▁forms	-14665
Intern	-14666
splits	-14667
nest	-14668
▁mis	-14669
Attack	-14670
arf	-14671
qtt	-14672
anger	-14673
▁iso	-14674
atives	-14675
eneficiary	-14676
MR	-14677
Pred	-14678
jacent	-14679
gx	-14680
rocket	-14681
▁decrypted	-14682
▁VirtualKeyCode	-14683
!['	-14684
bulk	-14685
AMOUNT	-14686
▁StdRng	-14687
▁filled	-14688
Challenge	-14689
▁whitespace	-14690
▁BYTE	-14691
▁pause	-14692
tape	-14693
▁Macro	-14694
▁Properties	-14695
Both	-14696
2.3	-14697
▁Tab	-14698
duces	-14699
▁voice	-14700
▁SR	-14701
▁12)	-14702
early	-14703
▁unbounded	-14704
transparent	-14705
▁Controller	-14706
011	-14707
▁Renderer	-14708
▁DU	-14709
▁parity	-14710
vex	-14711
▁ymmword	-14712
Transcript	-14713
,&	-14714
▁comma	-14715
▁funds	-14716
96,	-14717
uel	-14718
▁Rvalue	-14719
▁trusted	-14720
▁ark	-14721
▁had	-14722
QUEUE	-14723
▁workers	-14724
ked	-14725
MARK	-14726
glyphs	-14727
Pressed	-14728
▁consts	-14729
StorageError	-14730
WITH	-14731
Connections	-14732
ucl	-14733
crow	-14734
▁[],	-14735
profiles	-14736
▁Shorthand	-14737
▁}];	-14738
▁Signer	-14739
▁Ob	-14740
This	-14741
UNKNOWN	-14742
▁ordering	-14743
Aggregation	-14744
KV	-14745
HS	-14746
gil	-14747
([0,	-14748
imli	-14749
ople	-14750
000);	-14751
▁bias	-14752
▁5],	-14753
identifiers	-14754
▁gio	-14755
▁consider	-14756
▁192	-14757
▁Clip	-14758
.25	-14759
▁um	-14760
▁Aes	-14761
PORTED	-14762
▁sched	-14763
recorder	-14764
flex	-14765
▁justification	-14766
FromStr	-14767
▁linker	-14768
▁mailbox	-14769
▁LD	-14770
▁ASC	-14771
COUNTER	-14772
▁esp	-14773
61,	-14774
gpr	-14775
Extensions	-14776
iel	-14777
▁zoom	-14778
▁coverage	-14779
▁vt	-14780
RESP	-14781
▁bal	-14782
▁diagnostic	-14783
▁serve	-14784
▁immutable	-14785
Paint	-14786
▁&[])	-14787
untary	-14788
rencies	-14789
▁Coin	-14790
▁accumul	-14791
▁partitions	-14792
SDL	-14793
egral	-14794
least	-14795
audit	-14796
article	-14797
Namespaced	-14798
pic	-14799
▁SV	-14800
wasi	-14801
almost	-14802
▁scaled	-14803
Alarm	-14804
Recommendation	-14805
▁btc	-14806
ObjectType	-14807
73,	-14808
32)>	-14809
▁10).	-14810
▁0]	-14811
▁notes	-14812
ardis	-14813
▁callbacks	-14814
GG	-14815
▁SUB	-14816
▁DEBUG	-14817
Incompatible	-14818
▁Append	-14819
ITER	-14820
Roll	-14821
CHANNEL	-14822
▁1;94	-14823
Invite	-14824
▁effective	-14825
▁ContractError	-14826
xcb	-14827
_40	-14828
▁Leaf	-14829
pdw	-14830
bls	-14831
▁mail	-14832
36,	-14833
foreg	-14834
▁sequ	-14835
NN	-14836
NOTI	-14837
perf	-14838
▁ink	-14839
cards	-14840
eeded	-14841
cribes	-14842
▁artifacts	-14843
LEFT	-14844
▁ABC	-14845
▁114,	-14846
▁accum	-14847
ObjectId	-14848
▁difficulty	-14849
▁Micro	-14850
▁representing	-14851
3")]	-14852
().0;	-14853
▁Fold	-14854
ulfill	-14855
Raster	-14856
replacement	-14857
▁strong	-14858
INTERVAL	-14859
▁outside	-14860
())?)	-14861
3]	-14862
▁enclave	-14863
atermark	-14864
▁decimals	-14865
qlite	-14866
▁serialization	-14867
▁song	-14868
▁attached	-14869
abric	-14870
▁traits	-14871
▁persistent	-14872
CTL	-14873
8];	-14874
psr	-14875
76,	-14876
aches	-14877
Incorrect	-14878
unsupported	-14879
000000000000000	-14880
▁Case	-14881
subsec	-14882
▁DefId	-14883
▁ub	-14884
ajor	-14885
Deref	-14886
EINVAL	-14887
▁Predicate	-14888
▁CMsgClient	-14889
heads	-14890
foreground	-14891
▁34,	-14892
▁Geometry	-14893
Quick	-14894
compose	-14895
55,	-14896
ton	-14897
▁adc	-14898
fmsub	-14899
▁voting	-14900
RenderingContext	-14901
▁nav	-14902
Midi	-14903
Skill	-14904
dtype	-14905
schemas	-14906
▁scheduled	-14907
▁orientation	-14908
▁qs	-14909
mach	-14910
▁4).	-14911
Encrypted	-14912
ARM	-14913
binds	-14914
▁trade	-14915
phemeral	-14916
▁Install	-14917
▁produce	-14918
▁insensitive	-14919
▁Delta	-14920
protection	-14921
Removed	-14922
recording	-14923
vd	-14924
256>	-14925
▁226,	-14926
▁reads	-14927
64<	-14928
▁ACMD	-14929
▁friend	-14930
▁(__	-14931
▁Paint	-14932
UserData	-14933
Ca	-14934
▁APP	-14935
▁Qual	-14936
Xmmword	-14937
Experiment	-14938
8]);	-14939
Assigned	-14940
dg	-14941
BLE	-14942
().0);	-14943
▁NodeIndex	-14944
CommandBuffer	-14945
▁VARI	-14946
GenesisConfig	-14947
...	-14948
▁late	-14949
arrays	-14950
▁latency	-14951
▁undefined	-14952
Ir	-14953
cmds	-14954
Addresses	-14955
THRESHOLD	-14956
2")	-14957
_(&	-14958
▁JsAny	-14959
▁lr	-14960
bookmark	-14961
▁nex	-14962
▁overwrite	-14963
▁rg	-14964
sures	-14965
▁111,	-14966
bodies	-14967
pkh	-14968
▁why	-14969
ourney	-14970
Semaphore	-14971
▁proposer	-14972
containing	-14973
112	-14974
▁rnd	-14975
FMOD	-14976
ught	-14977
bw	-14978
Grpc	-14979
▁city	-14980
▁ticks	-14981
Indices	-14982
▁previously	-14983
7],	-14984
(128	-14985
(8);	-14986
bases	-14987
Inputs	-14988
mdb	-14989
32)?;	-14990
tenant	-14991
▁ips	-14992
ialized	-14993
ulner	-14994
▁bbox	-14995
opencv	-14996
structs	-14997
"'	-14998
32().	-14999
Oracle	-15000
▁drawing	-15001
Elections	-15002
finality	-15003
banks	-15004
toler	-15005
Qualified	-15006
▁universe	-15007
bag	-15008
vention	-15009
▁conditions	-15010
64"	-15011
Typ	-15012
asn	-15013
ffy	-15014
below	-15015
▁hist	-15016
refund	-15017
detector	-15018
▁apple	-15019
prefixed	-15020
ProtobufTypeUint	-15021
ads	-15022
reemap	-15023
prefixes	-15024
runs	-15025
uned	-15026
▁daemon	-15027
Met	-15028
attestation	-15029
▁Wire	-15030
▁unwind	-15031
terminate	-15032
▁du	-15033
blake	-15034
sensor	-15035
semaphore	-15036
ilege	-15037
00000000000000	-15038
mu	-15039
Gui	-15040
▁SB	-15041
▁discovery	-15042
▁CK	-15043
▁Css	-15044
▁fft	-15045
▁Safe	-15046
Records	-15047
InUseException	-15048
Pools	-15049
▁textures	-15050
arger	-15051
▁Conf	-15052
▁plugins	-15053
ERK	-15054
SIS	-15055
phi	-15056
airo	-15057
("1.	-15058
▁isn	-15059
▁Annotated	-15060
▁)(	-15061
▁High	-15062
▁After	-15063
▁Setting	-15064
▁16]	-15065
plist	-15066
sport	-15067
regular	-15068
'9	-15069
HStringArg	-15070
Pay	-15071
▁Second	-15072
Decoding	-15073
▁raster	-15074
▁rendered	-15075
IRQ	-15076
UTF	-15077
▁AA	-15078
CERT	-15079
MC	-15080
▁28,	-15081
▁bcs	-15082
SECRET	-15083
▁scenario	-15084
▁mr	-15085
▁trail	-15086
▁RTC	-15087
▁Bytecode	-15088
▁Vcx	-15089
degrees	-15090
density	-15091
▁signals	-15092
Acl	-15093
▁-2	-15094
▁Dev	-15095
▁FIEL	-15096
▁indy	-15097
▁prod	-15098
(())?;	-15099
▁ApiError	-15100
▁AsmRegisterZmm	-15101
Am	-15102
xi	-15103
3-	-15104
5(	-15105
ubit	-15106
Codes	-15107
SetError	-15108
▁BTC	-15109
▁past	-15110
Parallel	-15111
▁NotFound	-15112
upd	-15113
OC	-15114
▁inherit	-15115
Fund	-15116
▁divisor	-15117
▁ORD	-15118
entral	-15119
ibbles	-15120
![]).	-15121
▁Publish	-15122
containers	-15123
Notifier	-15124
kew	-15125
(1..	-15126
▁RawFd	-15127
▁expiry	-15128
fullscreen	-15129
▁CB	-15130
ITEM	-15131
(2.0,	-15132
drawing	-15133
▁Extern	-15134
▁Reward	-15135
99999999	-15136
▁Room	-15137
NumberOf	-15138
▁Product	-15139
popup	-15140
ordinal	-15141
inations	-15142
snapshots	-15143
:0)	-15144
joyn	-15145
CLOCK	-15146
▁55	-15147
Bitcoin	-15148
mutations	-15149
456	-15150
ppu	-15151
Review	-15152
▁pane	-15153
265	-15154
demand	-15155
▁Super	-15156
▁lengthy	-15157
iring	-15158
actors	-15159
▁Exact	-15160
Coordinate	-15161
Excluded	-15162
pal	-15163
tracer	-15164
adt	-15165
Announce	-15166
OpenOptions	-15167
which	-15168
FALSE	-15169
nonnull	-15170
JsonValue	-15171
▁pen	-15172
sampling	-15173
Throw	-15174
▁implicit	-15175
Comparison	-15176
Alive	-15177
▁these	-15178
essaging	-15179
▁Priority	-15180
▁FOO	-15181
▁Patch	-15182
Increment	-15183
▁well	-15184
datatype	-15185
includes	-15186
▁behavior	-15187
Externalities	-15188
timeline	-15189
▁accepted	-15190
four	-15191
▁AccountAddress	-15192
Mi	-15193
DEV	-15194
UMENT	-15195
linux	-15196
orator	-15197
CAgentBase	-15198
edition	-15199
prg	-15200
▁65	-15201
▁El	-15202
mempool	-15203
▁exports	-15204
10.	-15205
▁FE	-15206
▁reflect	-15207
duc	-15208
brace	-15209
▁Stage	-15210
Compliance	-15211
▁scaling	-15212
64)>	-15213
WAIT	-15214
▁mip	-15215
Suite	-15216
crates	-15217
▁mysql	-15218
els	-15219
▁]))	-15220
retrieve	-15221
▁reached	-15222
Fix	-15223
ascade	-15224
adc	-15225
HIGH	-15226
(1)));	-15227
▁slow	-15228
▁Unary	-15229
enforce	-15230
▁question	-15231
CORE	-15232
▁LEN	-15233
▁gap	-15234
▁PyObject	-15235
▁wl	-15236
32)),	-15237
▁mainnet	-15238
!(@	-15239
VATE	-15240
▁Rgba	-15241
▁DWORD	-15242
overrides	-15243
▁downcast	-15244
▁includes	-15245
Associated	-15246
entrypoint	-15247
InvalidRequest	-15248
▁fire	-15249
gement	-15250
funding	-15251
▁rewards	-15252
▁accumulator	-15253
▁AES	-15254
again	-15255
Fixture	-15256
Accepted	-15257
proposer	-15258
Bn	-15259
▁Blake	-15260
▁pivot	-15261
▁Canister	-15262
BeaconState	-15263
▁Verification	-15264
-06	-15265
Ink	-15266
▁Relay	-15267
WIPOffset	-15268
bert	-15269
liest	-15270
▁Look	-15271
question	-15272
GTK	-15273
SEQ	-15274
EndOf	-15275
Micro	-15276
Timed	-15277
ReadError	-15278
essell	-15279
icular	-15280
▁replay	-15281
6()	-15282
candid	-15283
▁chart	-15284
▁Rotation	-15285
▁vx	-15286
erance	-15287
▁Reserved	-15288
>.	-15289
snd	-15290
▁#)	-15291
reamble	-15292
stopped	-15293
assemble	-15294
attempts	-15295
▁encountered	-15296
736	-15297
Differ	-15298
Serializable	-15299
▁QueryResult	-15300
-05	-15301
▁ERR	-15302
▁inspect	-15303
pdf	-15304
8080	-15305
limiter	-15306
BitMemory	-15307
))|	-15308
CLU	-15309
▁clipboard	-15310
▁around	-15311
▁footer	-15312
()[0]	-15313
rn	-15314
ares	-15315
thetic	-15316
▁trying	-15317
roma	-15318
fines	-15319
idence	-15320
querier	-15321
ABC	-15322
▁FIX	-15323
plorer	-15324
migrate	-15325
Channels	-15326
224	-15327
LER	-15328
00,0	-15329
▁Car	-15330
Probe	-15331
▁panel	-15332
accumul	-15333
▁signers	-15334
ourse	-15335
▁125,	-15336
▁reload	-15337
biguint	-15338
partment	-15339
▁branches	-15340
▁notifications	-15341
kms	-15342
bldr	-15343
Combination	-15344
▁InternalError	-15345
dna	-15346
arded	-15347
Hardware	-15348
▁baseline	-15349
EXP	-15350
Mapped	-15351
/8	-15352
WARD	-15353
▁":"	-15354
Pk	-15355
6::	-15356
▁jpg	-15357
▁Fi	-15358
ALPH	-15359
unify	-15360
consistency	-15361
▁invocation	-15362
ProtocolError	-15363
VIEW	-15364
tps	-15365
▁om	-15366
maker	-15367
▁Capability	-15368
▁annotations	-15369
▁along	-15370
2]);	-15371
▁gain	-15372
▁FromStr	-15373
anizations	-15374
napi	-15375
▁'0'	-15376
▁3).	-15377
erError	-15378
▁dup	-15379
NextToken	-15380
cg	-15381
▁pts	-15382
Without	-15383
▁Neg	-15384
▁123,	-15385
▁Fake	-15386
writeln	-15387
Aggregator	-15388
.__	-15389
▁sdk	-15390
▁spaces	-15391
▁correctly	-15392
busy	-15393
xdr	-15394
Paths	-15395
seqno	-15396
Loaded	-15397
governance	-15398
▁Punct	-15399
▁Promise	-15400
()(	-15401
_5()	-15402
rights	-15403
timing	-15404
VA	-15405
▁7),	-15406
Tip	-15407
▁Fs	-15408
▁hide	-15409
▁press	-15410
6:	-15411
executed	-15412
Whitespace	-15413
ExecutionError	-15414
RS	-15415
RAD	-15416
taffy	-15417
▁Owner	-15418
AppInstance	-15419
Reservation	-15420
41,	-15421
90,	-15422
baz	-15423
NIEnv	-15424
▁ORDER	-15425
▁subst	-15426
Insight	-15427
POL	-15428
▁Dns	-15429
lightning	-15430
MON	-15431
emocracy	-15432
rollback	-15433
▁2.5	-15434
▁Supported	-15435
enr	-15436
mail	-15437
Sheet	-15438
initializer	-15439
>>().	-15440
ybrid	-15441
ONSE	-15442
64();	-15443
States	-15444
LAYER	-15445
▁Sink	-15446
anging	-15447
▁thumb	-15448
urly	-15449
(4));	-15450
▁entire	-15451
Findings	-15452
Vo	-15453
▁pac	-15454
▁dark	-15455
▁Stats	-15456
▁repos	-15457
prior	-15458
Authorized	-15459
ollar	-15460
Updates	-15461
etter	-15462
▁Hyper	-15463
observer	-15464
QueryResult	-15465
'],	-15466
cart	-15467
Subject	-15468
AccessControl	-15469
OPEN	-15470
▁RoundingMode	-15471
aid	-15472
3");	-15473
▁DAT	-15474
kinds	-15475
▁gobject	-15476
▁ipc	-15477
Stamp	-15478
Mapper	-15479
Tw	-15480
hop	-15481
.0",	-15482
lined	-15483
▁Monitor	-15484
NodeIndex	-15485
▁0");	-15486
ancestors	-15487
BOX	-15488
median	-15489
▁perf	-15490
Callbacks	-15491
PgConnection	-15492
CAT	-15493
>)>,	-15494
▁ALL	-15495
utive	-15496
Customer	-15497
▁GLsizei	-15498
osh	-15499
255,	-15500
▁dfs	-15501
▁grow	-15502
MAT	-15503
cheduling	-15504
Intersection	-15505
ISTS	-15506
▁occ	-15507
cstring	-15508
▁Fail	-15509
▁Blend	-15510
predict	-15511
usqlite	-15512
▁&[102,	-15513
Outgoing	-15514
▁99,	-15515
▁UUID	-15516
mailbox	-15517
NP	-15518
"],	-15519
(&0	-15520
▁Ro	-15521
▁ang	-15522
▁newline	-15523
ErrorType	-15524
▁hl	-15525
ADATA	-15526
OURCE	-15527
(1.0),	-15528
vectored	-15529
Accelerator	-15530
▁AtomicBool	-15531
45,	-15532
▁Events	-15533
Versions	-15534
▁plus	-15535
▁OsRng	-15536
KeyEvent	-15537
▁Password	-15538
OG	-15539
uq	-15540
▁disp	-15541
▁Upload	-15542
▁abcdefg	-15543
▁vectors	-15544
▁EXPECTED	-15545
sx	-15546
prover	-15547
rection	-15548
▁estimate	-15549
ILL	-15550
both	-15551
echeck	-15552
review	-15553
pcm	-15554
▁Library	-15555
▁pressed	-15556
▁Parsing	-15557
▁Tick	-15558
icipants	-15559
_0000_0000	-15560
MouseButton	-15561
Provisioning	-15562
URI	-15563
cue	-15564
Fall	-15565
logic	-15566
TRANSFER	-15567
demo	-15568
Meter	-15569
edium	-15570
BUTTON	-15571
▁fingerprint	-15572
▁intermediate	-15573
TempDir	-15574
▁specs	-15575
BeaconBlock	-15576
2[	-15577
▁39	-15578
▁shrink	-15579
apb	-15580
leak	-15581
cuda	-15582
lifecycle	-15583
▁scanner	-15584
oi	-15585
ValueError	-15586
▁BigEndian	-15587
▁apps	-15588
scanner	-15589
RESOURCE	-15590
anularity	-15591
aN	-15592
SIC	-15593
will	-15594
▁payer	-15595
▁phone	-15596
Subscribe	-15597
[..].	-15598
kad	-15599
▁basis	-15600
▁insertion	-15601
▁Cached	-15602
▁issues	-15603
Aligned	-15604
▁Sending	-15605
3-01");	-15606
Functions	-15607
_0)	-15608
Guid	-15609
▁ends	-15610
}',	-15611
▁Fast	-15612
▁transl	-15613
plicates	-15614
NDI	-15615
_18	-15616
▁&'_	-15617
▁prior	-15618
Behaviour	-15619
▁utxo	-15620
▁DWRITE	-15621
extrinsic	-15622
▁Encryption	-15623
▁specialization	-15624
Dead	-15625
chart	-15626
gauge	-15627
▁exclusive	-15628
UnexpectedEof	-15629
RefMut	-15630
▁nanos	-15631
Templates	-15632
AppState	-15633
InvalidValue	-15634
Old	-15635
KICK	-15636
MARY	-15637
▁dht	-15638
activ	-15639
MOVE	-15640
IUnknownVtbl	-15641
00".	-15642
elcome	-15643
▁90	-15644
Before	-15645
suggest	-15646
HasProperty	-15647
▁49	-15648
mono	-15649
▁Book	-15650
▁_>(&	-15651
▁"127.0.0.1:	-15652
attached	-15653
irm	-15654
▁Claim	-15655
Compound	-15656
velopment	-15657
pck	-15658
ENCODE	-15659
Calendar	-15660
▁CG	-15661
inel	-15662
BindGroup	-15663
ANK	-15664
▁)*	-15665
Ordered	-15666
Visible	-15667
CoreWebView	-15668
puroro	-15669
▁Xor	-15670
Barrier	-15671
Multicast	-15672
nsec	-15673
▁declare	-15674
▁rsa	-15675
▁Indexed	-15676
suggestion	-15677
coefficient	-15678
Hir	-15679
airs	-15680
atum	-15681
▁spread	-15682
▁commits	-15683
inators	-15684
keywords	-15685
77,	-15686
USB	-15687
stm	-15688
Inode	-15689
STRUCT	-15690
ChatRoom	-15691
▁testdata	-15692
▁toolchain	-15693
Trap	-15694
Padding	-15695
▁0.0));	-15696
fns	-15697
▁(0.0,	-15698
▁alive	-15699
ama	-15700
ny	-15701
74,	-15702
dht	-15703
▁ACT	-15704
ParserError	-15705
MEN	-15706
wal	-15707
glwe	-15708
▁36,	-15709
▁5.0	-15710
▁6.0,	-15711
VECTOR	-15712
110	-15713
▁very	-15714
▁LINE	-15715
▁dtype	-15716
Backward	-15717
FB	-15718
fptr	-15719
urst	-15720
Syscall	-15721
PubKey	-15722
mirror	-15723
firewall	-15724
▁provision	-15725
▁TE	-15726
harness	-15727
Placeholder	-15728
adj	-15729
(|(_	-15730
norr	-15731
▁JOIN	-15732
07,	-15733
▁VR	-15734
Same	-15735
chnorr	-15736
IVectorView	-15737
00",	-15738
gene	-15739
▁Activation	-15740
▁Ali	-15741
implified	-15742
[6]	-15743
jwt	-15744
Deep	-15745
▁nightly	-15746
▁PrivateKey	-15747
▁USB	-15748
cepted	-15749
CONTRACT	-15750
obs	-15751
TP	-15752
▁3",	-15753
(8),	-15754
InputEvent	-15755
▁UTC	-15756
▁able	-15757
▁Closure	-15758
▁mempool	-15759
unavailable	-15760
SN	-15761
rustls	-15762
Benchmark	-15763
▁multiply	-15764
ito	-15765
▁2020	-15766
▁Final	-15767
Digit	-15768
▁redeem	-15769
hb	-15770
_3(	-15771
disp	-15772
▁gui	-15773
▁sing	-15774
▁triple	-15775
otiation	-15776
mip	-15777
▁"8	-15778
algebra	-15779
Tracking	-15780
above	-15781
LU	-15782
0".	-15783
▁PC	-15784
tridge	-15785
▁sensor	-15786
[...]
